[PAD]
[UNK]
[CLS]
[SEP]
[MASK]
[NL]
[HS]
[SOS]
[EOS]
[ZWNJ]
[U1]
[U2]
[U3]
[U4]
[U5]
[U6]
[U7]
[U8]
[U9]
[U10]
[U11]
[U12]
[U13]
[U14]
[U15]
[U16]
[U17]
[U18]
[U19]
[U20]
[U21]
[U22]
[U23]
[U24]
[U25]
[U26]
[U27]
[U28]
[U29]
[U30]
[U31]
[U32]
[U33]
[U34]
[U35]
[U36]
[U37]
[U38]
[U39]
[U40]
[U41]
[U42]
[U43]
[U44]
[U45]
[U46]
[U47]
[U48]
[U49]
[U50]
[U51]
[U52]
[U53]
[U54]
[U55]
[U56]
[U57]
[U58]
[U59]
[U60]
[U61]
[U62]
[U63]
[U64]
[U65]
[U66]
[U67]
[U68]
[U69]
[U70]
[U71]
[U72]
[U73]
[U74]
[U75]
[U76]
[U77]
[U78]
[U79]
[U80]
[U81]
[U82]
[U83]
[U84]
[U85]
[U86]
[U87]
[U88]
[U89]
[U90]
[U91]
[U92]
[U93]
[U94]
[U95]
[U96]
[U97]
[U98]
[U99]
[U100]
!
"
%
&
'
(
)
*
+
,
-
.
/
0
1
2
3
4
5
6
7
8
9
:
;
<
=
>
?
@
A
B
C
D
E
F
G
H
I
J
K
L
M
N
O
P
Q
R
S
T
U
V
W
X
Y
Z
[
\
]
^
_
`
a
b
c
d
e
f
g
h
i
j
k
l
m
n
o
p
q
r
s
t
u
v
w
x
y
z
{
|
}
~
¡
¢
¤
¦
§
¨
ª
«
¬
¯
°
±
²
³
´
µ
¶
·
¸
¹
º
»
¼
½
¾
¿
Æ
Ð
×
Ø
Þ
ß
æ
ð
÷
ø
þ
Đ
đ
ħ
ı
Ł
ł
ŋ
Œ
œ
Ɓ
Ƈ
Ə
Ɛ
ƒ
ƙ
Ɯ
Ɲ
Ɵ
ƥ
Ƭ
Ʋ
Ƴ
Ƶ
ǁ
ǃ
ǝ
ȝ
Ȥ
ɀ
Ƀ
ɐ
ɑ
ɒ
ɓ
ɔ
ɕ
ɖ
ɗ
ɘ
ə
ɛ
ɜ
ɠ
ɡ
ɢ
ɣ
ɤ
ɥ
ɦ
ɨ
ɪ
ɫ
ɬ
ɯ
ɰ
ɲ
ɴ
ɵ
ɸ
ɹ
ɾ
ʁ
ʂ
ʃ
ʄ
ʈ
ʉ
ʊ
ʋ
ʌ
ʑ
ʒ
ʔ
ʕ
ʛ
ʝ
ʰ
ʲ
ʳ
ʷ
ʹ
ʺ
ʻ
ʾ
ʿ
ˀ
ˆ
ˇ
ˈ
ˌ
ː
˓
˘
˚
˛
˜
˝
ˡ
ˤ
ˮ
Α
Β
Γ
Δ
Ε
Η
Θ
Ι
Κ
Λ
Μ
Ν
Ξ
Ο
Π
Ρ
Σ
Τ
Υ
Φ
Χ
Ψ
Ω
α
β
γ
δ
ε
ζ
η
θ
ι
κ
λ
μ
ν
ξ
ο
π
ρ
ς
σ
τ
υ
φ
χ
ψ
ω
ϐ
ϑ
ϒ
ϕ
ϟ
Ϭ
ϵ
Ϸ
ϸ
Є
І
Ј
Љ
А
Б
В
Г
Д
Е
Ж
З
И
К
Л
М
Н
О
П
Р
С
Т
У
Ф
Х
Ц
Ч
Ш
Щ
Ы
Ь
Э
Ю
Я
а
б
в
г
д
е
ж
з
и
к
л
м
н
о
п
р
с
т
у
ф
х
ц
ч
ш
щ
ъ
ы
ь
э
ю
я
є
і
ј
љ
ћ
ѣ
Ѳ
Ғ
ғ
Қ
қ
Ң
ң
Ҥ
Ү
ү
ұ
Ҳ
ҳ
ҷ
һ
Ӏ
Ә
ә
Ө
ө
Ա
Բ
Գ
Դ
Ե
Է
Թ
Ի
Լ
Խ
Ծ
Կ
Հ
Ձ
Ճ
Մ
Յ
Ն
Շ
Ո
Չ
Պ
Ջ
Ռ
Ս
Վ
Տ
Փ
Ք
Օ
Ֆ
՞
ա
բ
գ
դ
ե
զ
է
ը
թ
ժ
ի
լ
խ
ծ
կ
հ
ձ
ղ
ճ
մ
յ
ն
շ
ո
չ
պ
ջ
ռ
ս
վ
տ
ր
ց
ւ
փ
ք
օ
ֆ
և
־
׃
א
ב
ג
ד
ה
ו
ז
ח
ט
י
ך
כ
ל
ם
מ
ן
נ
ס
ע
ף
פ
ץ
צ
ק
ר
ש
ת
װ
ײ
׳
،
؍
؛
؟
ء
آ
ا
ب
ة
ت
ث
ج
ح
خ
د
ذ
ر
ز
س
ش
ص
ض
ط
ظ
ع
غ
ؽ
ف
ق
ل
م
ن
ه
و
ى
ي
٠
١
٢
٣
٤
٥
٦
٧
٨
٩
٪
٫
٬
٭
ٱ
ٲ
ٴ
ٵ
ٶ
ٸ
ٹ
ټ
پ
ٿ
ځ
څ
چ
ڈ
ډ
ڌ
ڑ
ړ
ڕ
ږ
ژ
ښ
ڠ
ڤ
ڨ
ک
ڪ
ګ
ڬ
ڭ
گ
ڵ
ں
ڼ
ھ
ہ
ۃ
ۆ
ۇ
ۈ
ۉ
ۊ
ی
ۍ
ێ
ۏ
ې
ے
۔
ە
۞
۰
۱
۲
۳
۴
۵
۶
۷
۸
۹
ܐ
ܒ
ܓ
ܕ
ܗ
ܘ
ܙ
ܚ
ܛ
ܝ
ܟ
ܠ
ܡ
ܢ
ܣ
ܤ
ܥ
ܦ
ܨ
ܩ
ܪ
ܫ
ܬ
ބ
އ
މ
ދ
ލ
ގ
ޔ
ः
अ
आ
इ
ई
उ
ओ
औ
क
ख
ग
घ
च
छ
ज
ञ
ट
ठ
ड
ढ
ण
त
थ
द
ध
न
प
फ
ब
भ
म
य
र
ल
ळ
व
श
ष
स
ह
ा
ि
ी
ो
ौ
२
३
ং
ক
খ
ঙ
চ
জ
ট
ড
ত
দ
ন
প
ফ
ব
ম
য
র
ল
শ
স
হ
া
ি
ী
ে
ਅ
ਆ
ਇ
ਕ
ਖ
ਗ
ਘ
ਚ
ਜ
ਣ
ਤ
ਦ
ਨ
ਪ
ਬ
ਮ
ਰ
ਲ
ਵ
ਸ
ਹ
ਾ
ਿ
ੀ
ક
ગ
દ
ધ
ન
મ
ય
ર
હ
ા
ી
ଆ
ଓ
ଦ
ୀ
க
ச
ஜ
ட
ண
த
ந
ன
ப
ம
ய
ர
ல
ள
வ
ா
ி
ு
ெ
ே
ం
క
గ
జ
డ
ద
న
ప
బ
మ
ర
ల
వ
హ
ు
ಂ
ಅ
ಡ
ದ
ನ
ಪ
ಮ
ಯ
ರ
ವ
ಸ
ಾ
ು
ೂ
ೕ
ೖ
ക
ത
ന
പ
മ
ര
ല
വ
ാ
ി
ජ
ර
හ
ා
ก
ค
ง
จ
ช
ซ
ณ
ด
ต
ถ
ท
ธ
น
บ
ป
ผ
พ
ภ
ม
ย
ร
ล
ว
ศ
ษ
ส
ห
อ
ะ
า
ำ
เ
โ
ไ
ກ
ໄ
་
།
ག
ཐ
ན
པ
བ
ར
ས
က
င
ည
တ
န
ပ
လ
သ
း
ြ
ა
ბ
გ
დ
ე
ვ
ზ
თ
ი
კ
ლ
მ
ნ
ო
პ
რ
ს
ტ
უ
ფ
ქ
ღ
ყ
შ
ჩ
ც
ძ
წ
ხ
ჯ
መ
ባ
አ
ዓ
ይ
ግ
ម
រ
ស
ា
ᴄ
ᴗ
ᴠ
ᴧ
ᵉ
ᵛ
ᵢ
ᵻ
ᵽ
‐
‑
—
―
‖
†
‡
•
…
′
″
‹
›
※
⁃
⁄
⁝
⁰
ⁱ
⁴
⁵
⁶
⁸
⁹
⁺
⁻
₁
₂
₃
ₙ
₿
ℂ
℃
℅
℉
ℓ
ℕ
№
ℤ
℧
℮
ℷ
⅓
⅔
⅛
←
↑
→
↓
↝
↫
↵
⇐
⇒
⇔
⇚
⇛
⇦
⇽
∂
∅
∆
∇
∈
∑
−
∗
∘
∙
√
∝
∞
∟
∠
∥
∧
∨
∩
∪
∴
∼
≈
≡
≤
≥
≪
≫
⊂
⊃
⊆
⊇
⊕
⊗
⋅
⌊
⌋
⌒
⌘
⍺
##ا
##ز
##و
##م
##ی
##س
##ت
##ع
##ر
##ج
##ل
##ش
##گ
##ه
##د
##ن
##ف
##ک
##ى
##ح
##R
##I
##S
##A
##O
##ب
##ط
##G
##s
##r
##o
##m
##u
##n
##t
##e
##p
##l
##a
##z
##3
##7
##x
##ص
##ء
##۲
##۱
##۵
##h
##d
##8
##9
##b
##c
##v
##4
##پ
##ق
##i
##ذ
##ث
##w
##چ
##ي
##k
##F
##1
##0
##y
##ض
##خ
##۰
##5
##U
##N
##K
##غ
##P
##C
##Q
##E
##T
##6
##g
##L
##۴
##۳
##۸
##۶
##۷
##۹
##ظ
##ژ
##j
##٢
##B
##H
##2
##f
##V
##ə
##D
##W
##٠
##M
##е
##н
##у
##ı
##×
##ٲ
##´
##Z
##X
##ۆ
##ە
##ڕ
##q
##ٴ
##˓
##а
##б
##р
##л
##ы
##ε
##ρ
##ι
##κ
##λ
##υ
##τ
##ο
##ς
##ة
##ס
##י
##ד
##ו
##ת
##и
##о
##з
##в
##д
##т
##ь
##с
##ш
##к
##٨
##х
##я
##ν
##ω
##π
##σ
##ะ
##เ
##ท
##ย
##γ
##φ
##η
##ל
##מ
##ן
##β
##→
##Ø
##Y
##м
##−
##र
##म
##°
##ܫ
##ܘ
##ܪ
##র
##ܝ
##ܒ
##ܢ
##ڈ
##ბ
##ი
##ლ
##ს
##ო
##ა
##ۃ
##٥
##٩
##٧
##٣
##⁄
##æ
##J
##¯
##₂
##١
##٦
##ҳ
##Τ
##α
##ζ
##ਰ
##ਿ
##ਸ
##ਨ
##٤
##¬
##ڵ
##θ
##ێ
##ٱ
##ש
##ח
##∈
##±
##נ
##ז
##ч
##Ɵ
##ø
##ב
##ר
##ג
##ц
##≥
##ि
##त
##ा
##भ
##п
##श
##व
##द
##य
##ल
##μ
##ঙ
##ক
##ɨ
##ˈ
##ˇ
##ր
##ա
##ք
##ս
##ে
##া
##হ
##ন
##ξ
##δ
##ہ
##ھ
##Δ
##√
##פ
##כ
##ה
##ਾ
##ڑ
##և
##ն
##µ
##˛
##ո
##ղ
##թ
##მ
##უ
##კ
##ի
##ł
##ร
##ม
##อ
##ด
##า
##ช
##น
##ว
##ศ
##ห
##ส
##ถ
##і
##դ
##ʊ
##ʿ
##ю
##ۈ
##ړ
##ւ
##ծ
##ð
##ק
##ے
##ℓ
##ڤ
##←
##≡
##Ω
##ß
##ө
##ɒ
##²
##ڌ
##ں
##þ
##ј
##ٹ
##≤
##ځ
##ګ
##մ
##բ
##տ
##ŋ
##χ
##∪
##Σ
##⋅
##կ
##ʲ
##ɑ
##ɹ
##П
##М
##Н
##Е
##ե
##շ
##ɪ
##ψ
##¼
##ט
##দ
##г
##א
##ʰ
##ɯ
##ע
##˚
##յ
##न
##ם
##¹
##ɕ
##պ
##ᵛ
##ց
##ʒ
##↑
##ई
##ɛ
##ۍ
##ਆ
##լ
##щ
##ғ
##რ
##º
##ी
##प
##∙
##ি
##ল
##ট
##ী
##ך
##ۊ
##đ
##К
##Б
##צ
##ћ
##ზ
##ħ
##ڪ
##ʃ
##ٶ
##Г
##ტ
##ვ
##∨
##ф
##ʁ
##დ
##រ
##ម
##¨
##³
##э
##ባ
##थ
##Ε
##Π
##Η
##ª
##ค
##ต
##ध
##ാ
##ി
##ക
##ग
##ड
##½
##ж
##च
##ɬ
##ე
##ნ
##क
##ष
##ۏ
##ण
##չ
##ಾ
##ಮ
##ು
##ಂ
##ಡ
##ೕ
##ವ
##ರ
##ɲ
##ٸ
##∧
##վ
##ா
##ன
##ம
##ள
##℅
##≈
##С
##Р
##˘
##ং
##ץ
##ƒ
##ह
##¢
##ਵ
##ը
##ो
##Α
##Ι
##Λ
##∆
##ᴧ
##గ
##ం
##ప
##ⁱ
##ᵉ
##ˡ
##℃
##ɔ
##ਮ
##გ
##හ
##ා
##А
##Д
##Х
##Ш
##О
##˝
##ম
##ত
##ܬ
##ː
##¦
##ъ
##ף
##ې
##հ
##∇
##ɾ
##ɐ
##қ
##ұ
##ʝ
##÷
##ռ
##ब
##ܠ
##ܦ
##ज
##Ν
##⁸
##⁴
##є
##ट
##ජ
##ณ
##ป
##ℕ
##խ
##ϵ
##∑
##ਹ
##ਲ
##ɡ
##ʷ
##स
##ә
##ʾ
##զ
##ܕ
##ܡ
##ܐ
##ϟ
##ʌ
##ɣ
##ܣ
##է
##Ф
##И
##བ
##ી
##ર
##ˤ
##ʕ
##ง
##พ
##ձ
##ճ
##ા
##য
##চ
##ډ
##₃
##∗
##գ
##ำ
##บ
##ล
##Ц
##ხ
##ײ
##Т
##ܥ
##ɫ
##ɵ
##წ
##ყ
##ϕ
##ټ
##ږ
##ʻ
##ໄ
##জ
##ব
##œ
##⁵
##თ
##จ
##ก
##Υ
##∩
##ธ
##ѣ
##ப
##ச
##ǃ
##ಸ
##ನ
##Ψ
##ਤ
##ჩ
##ದ
##ਜ
##Ρ
##Κ
##ு
##ர
##ਗ
##ҷ
##ษ
##ไ
##വ
##പ
##ʑ
##ʂ
##ਇ
##Э
##პ
##ञ
##ٵ
##አ
##โ
##⁰
##⅔
##⊆
##Œ
##ܨ
##ফ
##ந
##த
##ौ
##Ο
##Χ
##ɦ
##Л
##ས
##∞
##Φ
##ਕ
##ੀ
##ܟ
##შ
##ˮ
##३
##℉
##փ
##প
##ؽ
##ᵢ
##ய
##ி
##ښ
##ٿ
##ይ
##ǝ
##ދ
##ބ
##ា
##ស
##ფ
##ʔ
##ਦ
##↓
##ܩ
##ܛ
##ᵻ
##ધ
##ซ
##ү
##⁺
##ʹ
##လ
##း
##У
##∂
##इ
##ெ
##Ҳ
##ढ
##ळ
##ག
##ֆ
##ˀ
##ჯ
##ღ
##އ
##މ
##ڭ
##ۉ
##ः
##ջ
##ਬ
##স
##ժ
##Μ
##ర
##க
##ძ
##ۇ
##ර
##င
##≫
##₁
##ქ
##∠
##Ա
##↵
##В
##ओ
##װ
##ң
##Ӏ
##Я
##હ
##ન
##દ
##ே
##ܗ
##ਖ
##⊕
##ల
##ు
##Æ
##Γ
##¾
##ല
##ܙ
##న
##Є
##څ
##ಯ
##ན
##Θ
##һ
##മ
##ܚ
##∴
##Ξ
##ண
##ც
##⅓
##Ə
##ख
##≪
##ϸ
##ˌ
##₿
##ผ
##ય
##ठ
##⇛
##ଦ
##ଆ
##ލ
##ʳ
##သ
##က
##ြ
##⁻
##¸
##ˆ
##ڠ
##వ
##ར
##শ
##Դ
##Հ
##Կ
##ୀ
##ਘ
##љ
##வ
##ɘ
##ޔ
##ద
##బ
##⁶
##ਣ
##ড
##ક
##Ϸ
##ϑ
##ܓ
##జ
##⊇
##ʉ
##Þ
##ᴠ
##ல
##օ
##ည
##န
##˜
##క
##డ
##Ь
##ட
##Յ
##ڼ
##∝
##⁹
##ܤ
##ກ
##Ձ
##ര
##२
##З
##મ
##ɜ
##ภ
##ℷ
##ਚ
##တ
##Β
##ಪ
##ግ
##ೖ
##ೂ
##ʋ
##आ
##ஜ
##మ
##छ
##ന
##ത
##ₙ
##ǁ
##WN
ZWN
ZWNJ
##ان
##ای
##ار
##ست
##ین
در
##ند
به
می
از
##ود
با
##ید
##ور
این
##اد
که
است
بر
##ال
##ام
را
##رد
ان
##یر
های
##اه
##لی
##ات
##ون
##ری
##شت
شد
##اب
##یم
هم
تو
ام
##فت
##از
##رو
رو
کن
برای
کرد
یک
##سی
ها
##ول
##اری
##یت
##را
##انی
خود
ای
##لا
##اده
##خت
دار
##گر
بود
مو
##یز
کار
تا
##های
##تی
شده
من
##وی
خو
##ده
##رک
##تر
##می
##اس
مح
شود
##یش
##مان
سال
باز
##اشت
##ایی
توان
##ها
ال
##یل
یا
باش
کند
دی
دو
بی
##گی
##گاه
##ما
تر
اس
اف
##نی
ده
##ورد
##انه
دست
مع
##وان
مد
##وش
او
##بی
##بت
فر
##بر
##مای
ار
مت
اند
قر
##یست
##کن
##زار
سر
دارد
##جه
داشت
##نگ
کنند
##رف
گر
##هر
##فته
##یک
مش
##قی
##وز
##ادی
##وم
##فاده
##ارد
##له
##اید
نیز
استفاده
خواه
##اره
##وع
هر
##اخت
هست
##اف
کم
##امه
اما
کش
##رکت
کنید
##وری
کرده
نظ
پیش
رس
حال
##اق
ایر
مس
قرار
##عد
##که
##دید
##به
##یا
شرکت
شما
روز
مق
مر
##عت
باشد
انت
گذ
##نده
بد
بخ
##عی
##جود
دیگر
نش
مج
##ستان
دان
##وت
##وا
ساز
وی
بسی
##عه
اش
##فر
عم
##ورت
##اط
نام
##خص
##شی
ما
اد
##نین
##نا
انج
روی
پس
اب
باید
##مین
ات
جم
مورد
##وه
دور
بین
نمای
##الی
داد
##یری
ایران
بیشت
شو
تح
##ایت
کشور
##لام
تم
##ره
اج
تن
نس
##کل
اگر
توس
خواهد
یکی
##امل
تص
##قه
نظر
جدید
عن
همچ
##اک
زی
اص
۲۰
##ریک
##یده
هستند
##لف
##یس
وجود
مه
اق
پر
##لید
عنوان
چه
نق
اپ
بازی
##اند
بز
پی
صورت
##شته
##نامه
ساخت
شهر
##وس
##مند
دهد
##یه
افز
##اص
##وب
جه
چند
اح
اع
انجام
نمی
پای
داشته
هایی
ماه
##اتی
##کان
##گان
اول
گو
##رای
##کس
##صد
راه
داده
اط
##خی
دا
##در
##ایش
نو
تولید
نی
بیشتر
گفت
ند
بعد
نیست
گوش
مط
امریک
##کی
حد
سه
بزر
##لو
بخش
##شن
بسیار
همچنین
##ترین
دانش
##کت
زمان
##کر
مث
مان
##فا
##زی
تب
##ونه
قاب
پرو
##ارت
پرد
میلی
##حی
هی
##مانی
کردن
##مت
فع
دل
##دا
##نج
سو
دارند
فیل
##سته
محص
##ازی
فرو
مرد
شوند
##ایل
##دی
##اپ
تواند
##ینه
شن
##بان
۱۹
برنامه
ترین
تج
اخ
##عات
کو
انها
بار
##امی
مص
قب
محصول
نم
بزرگ
نمایش
همین
##سه
##چه
مخت
گوشی
افر
خر
##اح
گرد
##ونی
زمین
بازار
بن
توسط
منت
زند
زیر
بوده
واق
خودرو
شم
عر
ارت
توجه
##لیل
گی
اطلا
##۰۰
اه
همه
جای
امریکا
##ازه
##غی
تع
##زش
##خاب
گرفته
حس
سیست
##دم
گرفت
کاربر
مدیر
##بین
##راه
فعال
##یزی
##با
مختلف
##ادر
##ژه
##بال
شب
اینکه
##رسی
##نه
##کار
فیلم
##تاب
قیم
برد
انتخاب
اخت
سیستم
افزایش
##فی
##من
کل
سا
فروش
##راي
هن
##ثر
جن
همراه
بگ
وق
شدن
##عیت
##یب
کس
##مل
##شد
۱۳
بال
نخ
##ینی
نیاز
تغی
##گری
تنها
بل
نشان
قیمت
علا
توانید
ور
هزار
بیم
کنیم
همان
تغییر
تق
خرید
##خه
گزار
##شان
سی
طور
##er
##رس
خان
##دام
عل
زیادی
خی
##شر
اعلام
##رح
سری
ایج
##زه
##زد
انگ
مرا
دلیل
درصد
ایجاد
##جی
تش
هد
##مال
##مه
مانند
تاری
میان
##ژی
گرو
کر
نه
شه
گل
##گیری
##کرد
خط
برخی
هوش
##هایی
##ضی
##قیق
طرا
دول
یاد
کتاب
ادامه
دستگاه
مهم
گزارش
افراد
حتی
۲۰۱
برگ
##وط
تمام
کمک
##بود
اغ
امکان
رفت
##نت
تیم
##یدا
دید
##وق
هیچ
زندگی
کاه
غیر
##لب
##بته
##وص
گروه
##زینه
سازمان
البته
##یف
##لیت
بسیاری
##لیک
مم
اراي
دهند
ارايه
##تری
مدل
سپ
##توان
کام
##عث
موض
معم
نسبت
##رفی
مشکل
اصلی
نا
بیش
##شم
باعث
دریا
##باره
نوع
##دار
ولی
##رم
کاهش
##ریق
##گه
گذشته
قط
##ظه
اطلاعات
خار
فض
مشت
پیدا
میز
حا
عرض
اشاره
موضوع
طراحی
ممکن
کردند
گفته
منط
عمل
##ودی
##ندی
##ابی
باشید
نفر
##رات
میلیون
##بار
رسید
صف
خبر
##ومی
احت
مردم
##سان
ترک
سایت
##شه
کاربران
وارد
سب
مخ
##تان
##بط
##اور
##نان
پشت
##ویر
##فق
وا
چهار
##تما
امرو
##ویی
توسعه
طول
بدون
شخص
صن
##حه
قابل
تعد
واقع
مرک
##شار
فعالیت
جز
مشخص
##انس
سام
داخ
دنی
وز
##رین
شک
عرضه
هوا
منتشر
ساعت
##لس
##سال
اموز
##یمی
نسخه
بالا
##on
مست
سازی
روش
زبان
مجم
##یشن
دارای
##برد
اولین
##واه
##اسب
نفت
هوشمند
##in
سای
دانشگاه
##بری
جهان
کسب
##لیه
رود
دولت
سن
شکل
قدر
##ریان
اپل
فرد
اور
جمه
اید
منطقه
معرفی
##فه
##قل
فق
##وار
موفق
دوربین
##یدی
زمانی
سط
##یشه
حدود
ملی
باشند
##باط
##ابر
اعت
مجموع
بهترین
##یره
رای
دلار
##ربه
شبکه
بهره
##راف
دریافت
نزد
نیر
##فون
تک
ایم
احتمال
ابت
##یکی
##لت
پرداز
رنگ
جمله
غذ
بررسی
##وک
میل
افت
زمینه
بودند
##گل
##است
قبل
کوچ
شاه
حض
##ولی
دیگری
اقت
##مد
محصولات
ارتباط
شرای
توانند
کننده
پرداخت
شرایط
##ونا
##رب
رق
##ازم
۱۰
مرب
##یار
##سر
عب
جنگ
اک
تاریخ
خیلی
##کنون
مک
دوره
دن
##اهی
##سون
کنار
##يیس
##یند
طریق
خاص
پار
اساس
چنین
اغاز
##هران
مدت
صفحه
قدرت
شی
اقتص
##تیجه
ته
##الب
پنج
کود
##صوص
##این
قابلیت
یع
وب
##میم
درباره
چرا
اض
تهران
جام
##گذ
استان
نوی
نخست
##ران
سف
##or
دوم
فقط
##اي
یعنی
##الات
شامل
مصرف
گوگل
جمهوری
##گو
شور
##صل
تعداد
##کاری
هنگ
تاث
مثل
##گز
##اسی
طرح
اپلیک
سخت
ثبت
اثر
جان
گیرد
ندارد
رسد
هزینه
مای
##an
حق
بهتر
اینده
##اله
میزان
دنبال
##سم
سرعت
##ندگان
شرو
##دود
سیا
نتیجه
ست
##ar
خانه
خصوص
پایان
حضور
هدف
متح
طب
مسي
##پی
بتوان
شاید
اسلام
برخ
ريیس
##یتی
شدند
کمی
سرمای
##هن
تلا
##ضر
هنوز
اپلیکیشن
شروع
خاط
جهانی
##فاوت
مربوط
سطح
سفر
ری
##en
موجود
هو
تاثیر
بیشتری
##دیل
ساخته
تبدیل
علاوه
پذ
بودن
فنا
##ضا
مب
##ولا
وقتی
اجتما
سرمایه
خوبی
تلف
اقدام
تجربه
سرو
صد
##وست
##امد
##لاس
کاری
صح
جذ
مناسب
مجموعه
##امین
اشت
##پانی
##اشته
طرف
##افه
##اش
برابر
امن
##ابت
ارو
نرم
اینتر
فناوری
قد
ویر
##تور
##خانه
طی
کلی
##اران
تصمیم
گذاری
ویژ
##اهای
موارد
گیری
##at
قان
چون
تلاش
##ینگ
هفته
کیل
خدم
موب
امروز
کوچک
اجتماعی
##وزه
خواهند
یه
بان
قس
خانو
سوی
##جا
پاس
##ابل
کیف
کان
حاضر
اسی
##یط
گیر
ویژگی
جو
بیماری
##دان
نقش
##کسی
۲۰۰
##جر
##00
بع
تای
##کیل
طبی
##گرد
چشم
قسمت
پروژه
##گران
یافت
پیشر
تحت
محیط
کنتر
فرا
حرف
##ریم
منظ
وض
دهید
سامسون
##کرو
اورد
لازم
سامسونگ
مالی
محدود
##وهای
##يی
##ابه
۱۲
انتق
نمود
شناخت
##مز
##مایی
دوست
##al
شر
نزدیک
جل
انر
حوزه
##لاح
خور
میلادی
گست
##سل
سمت
کامل
##ابق
##تل
ارز
خوب
موبایل
##es
کنترل
کال
ایرانی
##راین
حالت
ایفون
اندازه
##وند
چیزی
راح
##رخ
##سا
##رده
##شین
مذ
تان
فکر
##افی
##دن
افزار
جا
رشد
حل
خاطر
مرکز
##پا
بح
برند
انسان
روست
پوش
اسلامی
خدمات
ارزش
درست
##ولو
مواد
ویژه
اخیر
گاز
##داشت
پیر
خانواده
سایر
انتظ
رابط
اضافه
شان
حک
المل
##طور
مدیریت
تصویر
##ابع
مل
متر
عامل
کا
گوید
مشاه
##لاف
##وتی
مغ
مطال
بناب
چین
انرژی
اث
اموزش
نور
وزیر
سل
بگیر
##کتر
اندرو
دنیا
بنابراین
مار
مسیر
مثال
تشکیل
##تو
##واره
نص
##اتر
##گیر
دارید
حم
فار
گونه
##میت
بدن
سپس
پلی
برخورد
حالا
##هایت
سرویس
جلو
تخ
لو
داخلی
معمولا
اختیار
عملکرد
مقام
متن
##پر
سنگ
توی
اکنون
مشاهده
محل
موتور
ظاه
##ربی
##کو
شا
جهت
همکاری
عکس
##ایند
وزار
ساده
##فاق
پذیر
حساب
دادن
کیفیت
لح
کرونا
اون
وزارت
##طه
کمپانی
کنم
لب
انتظار
شیر
تحقیق
زیاد
تلفن
##ضای
پایین
نبود
##قت
ازمای
عض
##اهم
۱۸
صرف
##ندان
##جم
اتفاق
ندار
فضای
پزش
##الت
شناس
اقتصادی
سرا
نمایشگر
وقت
لی
فوت
بده
زن
موسی
سوم
##صر
قصد
احس
بیان
قل
چیز
##خش
نگاه
حالی
تور
هنر
المللی
گردش
##وبی
حاف
نمونه
##چی
نویس
##ظیم
##تون
کاملا
کمتر
نگه
هنگام
میلیارد
خوش
##it
برگزار
مرت
سریع
ایا
بندی
مشکلات
داستان
تهیه
برق
##اصله
پیشنه
نهایت
نشده
عملی
پاسخ
موس
تامین
20
ره
##یدن
همیشه
خواهید
کیلوم
تف
بعدی
پژ
##گونه
مرح
انوا
##ایج
واح
##جب
طبق
##بیه
جی
صنعت
افزود
یافته
نیم
حرکت
انواع
دقیق
امده
##شنبه
کشورهای
۱۵
متحده
دیده
خودش
##داری
گلکسی
##ریف
عمومی
##کته
وضعیت
تصا
روند
ابزار
##le
قانون
خارج
سین
موسیقی
ترا
##خصص
##ic
محس
##ویت
فل
##وي
بسته
بهبود
احتمالا
دوران
##وید
##یبانی
مرحله
جریان
درامد
برس
##امبر
##ظر
نف
پن
احساس
شوید
##ناسی
امد
پشتیبانی
##گون
سخ
دسترسی
تری
تمامی
##ro
نسل
شمار
نخستین
مبت
وس
حافظه
نوشته
کسی
ایالات
معت
##لق
کارت
##یتر
کوت
رسمی
پردازنده
مادر
داخل
##مون
اجرای
##سازی
مز
##بات
حمل
##راق
ازمایش
شناخته
##ولوژی
علی
مدر
علاقه
##ایه
##ویه
##مندان
##انیه
منظور
فراهم
##شک
##روف
عق
پول
شهری
بگذ
طبیعی
##یتال
اختص
باتری
بخشی
شخصی
##هم
نخواه
داشتن
نکته
ران
انتشار
رابطه
ظرف
تلو
نت
##ومت
موق
کاربرد
مشابه
کره
بینی
تقری
اجرا
##اندن
واحد
تلویزی
ویروس
بانک
امار
##وله
فصل
ابتدا
روسی
پژوه
نامه
حف
بلکه
مف
اطلاع
شار
تبلی
اندروید
فران
اسپ
نکرد
اینترنت
جامعه
##ادل
بلند
##پیم
کافی
سلام
وسی
موفقیت
مستق
جدیدی
فرایند
نوشت
منابع
تازه
محمد
مقاله
راست
ترتی
تکن
اذ
انگلی
انتقال
خورد
رون
گردد
ایده
مایکرو
تبلیغ
##وران
میکن
بیر
توانست
نصب
جمع
##رش
فاصله
درخ
گزینه
تنظیم
متفاوت
دقی
##جو
زیرا
شورای
گرفتن
##گاب
ترتیب
##ابقه
##ندگی
سبک
درمان
فشار
حمای
مناط
##خیص
##نتی
بست
یاب
اختصاص
اروپا
دسته
تصاویر
##سافت
##گار
صحبت
عو
توص
مجلس
##واست
دستور
اهمیت
خلا
##لاین
امید
کد
##re
##بور
پیشنهاد
مایکروسافت
##شناس
رشته
##ایسه
پیک
##ستانی
تقریبا
ازاد
هواپیم
اخرین
سیم
ریا
اجازه
تاب
پوست
اولیه
##عا
هند
خوان
محسوب
استاند
##قا
خارجی
فرمان
شکست
نقل
مجه
رسیده
##سیون
استخ
رفته
حمله
##ایع
ورود
ارسال
امور
پیام
رز
ویند
مقابل
مرگ
سعی
##عتی
عراق
هفت
جست
دری
کامپی
اثار
پدر
تکنولوژی
کشت
مشتریان
مجهز
پایه
فوتبال
مقایسه
۱۱
کوه
حی
##راک
هسته
ویندوز
##st
شاهد
##رکز
تاک
تشخیص
بش
افرادی
##سیس
مطالعه
تی
حمایت
تعی
پاد
هستید
ببین
تعیین
فوق
##رار
لذ
تحص
امریکایی
داریم
##جوی
دهه
اقای
پرس
تس
##ion
پخش
سود
سیاسی
##تا
گرم
بپ
##ac
چندین
مناطق
حفظ
بعضی
مرکزی
##غان
حقوق
خواست
موا
دقیقه
قدیمی
متو
فره
جایی
دنیای
فرز
##he
اماده
جدا
##نای
##نگی
مهر
روشن
جذاب
##دها
##دد
موجب
خطر
##گاهی
سیاست
نیروهای
۳۰
مطرح
##صه
ابر
پاک
راحتی
ارد
بالای
روسیه
مخاط
##فاع
زنان
##دین
گیگاب
امنیت
المان
ذخ
درون
باقی
##اقل
##يو
##چم
ماشین
کلید
۱۶
خون
##ing
بحث
برج
ضر
کیلومتر
ارام
##فع
##وتر
برگز
کردم
ویدی
اکس
بدان
بنی
بس
اعضای
تایید
##چار
مشه
مکان
##کور
##خته
##ریه
##قدر
رقابت
##اخ
شع
امسال
##گرام
۱۳۹
اسیب
عدم
شارژ
##اون
##وانی
اتاق
زیب
ورزش
۱۴
محب
##قق
##وزی
سوال
ترکیب
بیمار
مجازی
قرارد
مال
رخ
##سیم
دیج
هشت
زیست
چی
مشترک
اسن
خواب
سرد
بند
دوباره
کوتاه
حذ
##اها
##el
توضی
تغییرات
جنوبی
نح
دخت
جمعیت
مدار
##خصوص
نظیر
جلوگیری
جنوب
کودک
همچون
##ورتی
کدام
عضو
پیچ
باشیم
نظامی
تجاری
پیشرفت
همچنان
عالی
درجه
##شید
پژوهش
فرص
علمی
استاندارد
شمال
اظه
معروف
رم
##امپ
زد
حرفه
۲۵
مساف
شبیه
سفید
مواجه
قرن
توانایی
##ed
ماده
تفاوت
##دیگر
علت
وزن
انگلیسی
لین
##رت
مقدار
##کنان
قهر
بهداشت
##ou
تاریخی
##گیرد
مختلفی
رفتار
قادر
درخواست
##نز
ژاپ
گاهی
توضیح
صادر
۱۹۹
رسانه
انلاین
مراج
ساختمان
تد
جوان
##اج
محبوب
روید
حداقل
##ستی
##امت
انگیز
##وریت
ذخیره
فرهنگ
گراف
نب
مثلا
خاک
داشتند
ایست
واقعی
خواهیم
شهرستان
قبلی
تل
درد
الکتر
##اساس
جالب
رسیدن
اسم
نکن
حتما
##اورد
تومان
##هنگی
بروز
##وعی
براساس
نیروی
خرو
##کند
##۲۰
کامپیوتر
گذاشت
کودکان
۱۰۰
تاکید
##et
کاربری
نگر
##قد
انجا
منجر
مخصوص
میش
شماره
مستقیم
##om
##افق
مسيله
جشن
##شون
فروشگاه
حذف
فایل
دهنده
فرهنگی
تاسیس
ضد
ذهن
##وف
##انت
اظهار
نتایج
مشتری
##وسی
رونمایی
##یلی
یابد
یون
هستیم
جایزه
شخصیت
لباس
##دای
پل
201
دم
انچه
الع
فرانسه
ماند
متوجه
میدان
##داران
دستی
نداشت
مهند
ظرفیت
گسترده
پرچم
مام
برخوردار
دچار
معاون
ساله
مگ
سق
ریزی
پلاس
هتل
##رز
وسیله
جاری
نقطه
جذب
##حل
##بانی
ابی
خاصی
##ابان
##کنش
اغلب
دیگران
عه
10
##ادگی
پزشکی
غذایی
دادند
##اصل
سوخت
خودروهای
اینجا
خودروی
امکانات
بگیرید
نهایی
خصوصی
علیه
مسل
گویند
دانست
کارهای
##نو
ندارند
طولانی
اصفه
بریت
صند
عبارت
نداشته
اتح
یکدیگر
بازگ
کی
##مر
نخواهد
واقعیت
##ابط
وظ
تعریف
۱۷
انتخابات
فنی
عملیات
صدای
##شا
گیرند
##ستا
زاده
مشغ
محلی
##am
پارک
تحلیل
##ادهای
اقتصاد
##ايل
محت
بیرون
بنا
شنبه
رست
تاکنون
اشنا
هواوی
##وده
##ارید
اندازی
نرخ
باشگاه
##اموش
اتش
الکترون
باور
مرور
نوعی
مسابق
نبا
پلت
##تح
##واج
مقامات
تماس
پست
مها
برداری
فرصت
بازدید
تحصیل
سیاه
##بیر
شدت
تلویزیون
محتو
پا
مطلب
##وین
##is
دش
مسابقات
نمایشگاه
شای
زیبا
انس
گذاشته
بریتانی
انقل
##ظت
جزيی
مشغول
پرواز
##غل
درک
##مات
##ایر
رد
شمالی
##وریه
اصفهان
مراسم
ماس
کلاس
محقق
لیست
ظاهر
##سور
زده
صورتی
مسيول
گردشگری
بور
حز
##as
مراجعه
تجه
امر
روح
سان
تبلت
الی
ذکر
تجهیز
جد
تمرکز
مرتبط
روزنامه
کنندگان
موقعیت
اشتب
کسانی
##قات
شناسایی
گسترش
الکت
روابط
رده
##ot
بگیرد
چال
پت
امنیتی
اینچی
چگونه
##اظ
۲۴
ثانیه
شش
##یکس
لپ
گیگابایت
بزن
##بح
نباید
##رال
لذت
توافق
وال
حجم
شدید
##گانه
معنی
دقت
دام
##جان
چاپ
مقا
گران
دیجیتال
##غذ
افغان
مناس
حاصل
تما
##میر
##ویل
عهده
##تن
رهبر
نیمه
امتی
##ریب
##طان
علوم
چینی
فرود
پلتفر
##ژن
بزرگی
##ch
راحت
بالایی
وید
##ماد
بک
گیاه
صنایع
تحقیقات
جایگز
##il
##لاک
گذار
عمر
ماهی
روزانه
##گذاری
شهرد
پیاده
افزاری
تحریم
ساختار
امروزه
جایگاه
بتواند
غربی
سلامت
ضمن
کف
اطراف
##طر
مانده
تست
تیر
مکانی
حزب
برگزاری
خیابان
##شاه
رت
عک
نکرده
مصن
قوان
سهام
متعد
کشته
ترکیه
رفتن
نماید
تاپ
کشف
دولتی
مبار
فرم
توصیه
##رافی
سخن
##يت
اینستا
##حال
فارسی
اخر
##باز
##ol
##گن
فیز
موزه
صدا
متخصص
مشاور
بیت
هرچ
فهر
پوشش
پلیس
درو
##پد
ازد
واکنش
مبل
نقاط
قالب
اعمال
غذا
نار
اکثر
مصنوعی
تراشه
خبری
اجر
نحوه
فردی
بازاری
##داف
ادم
صبح
ریاست
حاک
نشست
سراسر
یادگیری
##ad
سامانه
خودتان
رمز
وان
خودم
کارگرد
##گانی
پلتفرم
##روم
رایگان
اکت
محم
حکومت
اشتراک
بازگشت
اصلاح
##کز
##بع
میتوان
روان
۵۰
مدتی
جدی
امتیاز
اداره
چیست
##مي
چندان
ارتش
اینترنتی
معماری
چرخ
خد
استارت
##اکس
اعتماد
سبب
اسراي
##سب
اشتباه
ناشی
میشه
کردیم
##OS
اورده
متع
دکتر
##لال
موثر
نیستند
دسترس
مخال
پروت
مطمي
فلس
##گین
##ریح
##nd
قوانین
شناسی
نج
محتوای
اوری
ستاره
جلسه
عین
فرزند
عقب
ژوي
عبور
نوا
زنده
##يین
فول
تصور
مغز
مدرسه
زیبایی
کارشناس
کری
اسک
اموزشی
الگ
عز
رستوران
##گزاری
بدنه
دیگه
گشت
قدرتمند
مسابقه
انکه
رتبه
العاده
لط
ببر
اهنگ
راهی
اینستاگرام
سنتی
تقسیم
##ارش
دیدن
لحاظ
میخ
##مپ
##هام
ثابت
مهارت
قرارداد
۱۹۸
دفت
##رسانی
##جمه
کالا
سلول
##روش
##وال
صنعتی
فضایی
بودجه
لحظه
اساسی
مگاپ
بخواه
##هره
##گذار
اسب
سریال
معتقد
عرب
بالاتر
انقلاب
مذاک
جزیره
انان
غرب
##کا
افغانستان
مرز
زدن
##دال
اهداف
استق
کلا
##دهی
ژان
##دهم
بیمه
چالش
مدیران
روستا
بچه
شیوه
##ستگی
روزهای
##غال
شرقی
سهم
الب
تخصص
ترس
مثبت
قوی
محاف
محک
ارزی
تجهیزات
همز
##ادیه
خرد
خدا
باشه
##زمین
بیشترین
نان
مسايل
باغ
تقویت
##id
دهیم
جع
نک
صاح
امپ
فهرست
فرض
##راض
نویسنده
##غن
برسد
روب
گردید
واقعا
##راج
انسانی
##وگ
نویسی
درخت
اطلاعاتی
مول
فیس
دیدار
مشهور
قطع
سبز
##رداز
مفید
شهرهای
همسر
منتقل
مجبور
تجارت
##مع
اصلا
داره
حو
مقر
ازدواج
دوستان
دفتر
اتص
پال
تمای
اگه
مند
حقیق
نوت
زود
رقم
تون
ایکس
اتحادیه
مفه
##ادا
فی
اتوم
ریز
##عامل
مهمی
اهل
رسان
منفی
رک
بزرگترین
دیجی
##ویری
لینک
استرات
جاده
بریتانیا
عدد
سنسور
شهرو
هوایی
رع
خریداری
##زا
اگرچه
دانل
##اتو
بیست
ژاپن
##عده
عص
بدین
نظام
موسسه
##داد
وح
ارزان
##شناسی
##ریز
رژ
جلب
بدانید
منبع
مشخصات
مراکز
##سول
امیدوار
ترامپ
دع
منح
##ولیت
بنز
ول
شاخص
محدودیت
معنای
هرچند
تبلیغات
کنه
##جد
چهارم
##ct
ترجمه
خانم
##iv
طل
سونی
ویت
##ig
اصل
ازادی
تعدادی
پدید
دختر
برده
مدیرعامل
گذر
۱۹۷
پیکسل
انگشت
##کش
مبتنی
##قیه
هنگامی
##رخه
ارتباطات
##ent
رسانی
میشود
ورز
بودم
استاد
##پل
##روی
خارجه
همواره
##وای
۴۰
همزمان
متوس
##us
##اشق
عج
لایه
معل
فعلی
بازاریابی
مدرن
عمده
مراحل
##انگ
جایگزین
دک
کشاور
##ay
لیگ
کشتی
دومین
##نظر
##ورک
رعایت
تکر
رفع
متصل
دیر
خبرگزاری
اسرايیل
رض
نکنید
برادر
هنری
مناسبی
دانلود
۲۱
##کننده
اجرایی
داری
بارد
توجهی
##کلی
په
ناب
نوز
چهره
۱۳۸
بای
ایمنی
توانیم
واب
لای
ارشد
طبیعت
##رانی
##کام
پایت
نیرو
نقشه
##ag
طوری
مذکور
واس
جشنواره
##لند
##ادث
قض
حقیقت
##ادت
##بیل
همانند
##ساز
خودکار
کنفر
اوایل
##اخر
اطمین
سک
عش
##سین
##ماند
خدمت
هایش
##ناک
##عف
ایالت
روغن
بتوانند
قرمز
##طرف
الکتریک
حداک
قا
گیم
بلو
اسف
ادبی
خبرنگ
دارم
##۵۰
##یستی
گذشت
اطمینان
نماینده
##گاری
نفتی
فرست
قانونی
##نایی
ماج
##زل
اروپ
شهرداری
پسر
گروهی
هوای
ابع
توزی
سید
جزيیات
صوتی
##oo
راهن
##نش
##میل
برتر
رژیم
افتاد
ملل
گوی
عادی
ارم
##یکسلی
عوامل
##ow
اقدامات
قدم
##ولد
رساند
سیل
دس
##وشن
نوشتن
خوا
##لات
مهاجر
##یفه
##ut
مگاپیکسلی
فراموش
بپرداز
##ارو
##احیه
##گرم
##گفت
اصط
ماهه
اعتراض
##رهای
بوک
جنسی
ورودی
##شده
درگذ
خشک
نزدیکی
شیمی
۱۹۶
بهتری
توزیع
انداز
انجمن
شرق
سراغ
الله
البوم
نشانه
محتوا
شیشه
اتصال
کنفرانس
##ماه
قلم
عکاسی
تاز
وسایل
ناخ
سازنده
زم
اواخر
برنده
نگهداری
توانسته
نتوان
قلب
همانطور
تمرین
هاست
کلمه
پیم
دلایل
چیپ
درصدی
تعط
دیوار
وظیفه
رویداد
مطل
بهینه
بم
نموده
دکمه
لغ
خانگی
بص
طبقه
لوله
۲۲
نگرانی
دانشجوی
بگذارید
دادگاه
شیوع
ریال
معادل
##لح
##شیه
سران
##یته
دفاع
مهندسی
پیچیده
دقیقا
جستجو
##ur
قطعات
اژ
##ارک
دارو
سنگین
ایت
صحنه
##اقع
میکرو
##جام
ارتفاع
سع
سنت
چش
اقامت
نظارت
ارزیابی
اچ
گری
هیيت
محققان
##وح
الکتریکی
معمولی
##ستر
کیلو
اختلاف
کرب
علم
مون
تحویل
اعتبار
کلیک
##ورش
اتم
نمایید
##نیک
مواردی
اذرب
کاربردی
##نجی
ابعاد
رادی
مبارزه
منتظر
تي
حاشیه
حسین
زا
ایستگاه
افس
اذربایج
دبیر
کاب
ابتدای
متوسط
ورزشی
##راتور
بورس
مطمين
##فل
اسان
##وذ
فن
سرباز
بازیکن
مبتلا
برداشت
افریق
تدری
تازگی
بقیه
ترکی
##ارکت
زنج
مقاومت
سالگی
زندان
گاه
##باری
##فاوتی
دهندگان
سابقه
قه
سابق
خلاق
قهرمان
پنل
##عم
نوش
صرفا
الان
##فانه
۲۰۱۸
پیشرفته
##واری
##ورده
ناحیه
حداکثر
ساح
باد
قطعا
جواب
بالات
خام
پرونده
##ویم
رایانه
اسپانی
کارشناسان
پرت
مستقل
##رض
##20
۲۳
گام
اخبار
کمیسیون
##نس
##ir
##يم
گونا
##دس
مراق
سفارش
کور
خیر
19
چقدر
تقا
بو
##کاران
##حات
کنسول
مزای
تهدید
استارتاپ
واژه
پیروزی
ضروری
ویدیو
سالم
اختصاصی
##ویب
مسيولیت
روزی
بافت
کارکنان
وکار
##زن
ترد
کارخانه
##بد
۶۰
بحران
بیمارستان
روستای
ببینید
کانال
ایتال
##جت
دریایی
##اژ
##سک
طلا
##اشی
درمانی
دلاری
تصویب
##امون
روبرو
پردازش
##وقف
##خواه
بدست
St
درس
##خره
سپت
فرودگاه
متوقف
کانادا
کنونی
iOS
##لیم
نشد
ممن
اخیرا
ماسک
##رکتی
خواندن
اباد
هواپیما
فای
اهن
مصاح
خواسته
مسی
خودشان
سرخ
ایتالیا
جمهور
کوین
##ابله
خلق
۲۰۲۰
مخاطب
باب
سپتامبر
پور
بنیان
بخار
نباشد
##کنندگان
سختی
بشر
##ادار
مقابله
##ia
کشاورزی
لر
درگیر
فضا
##ذیر
مذه
چنان
باره
پیشین
ایمیل
جنس
یخ
نیوی
##ایق
اتمی
مرغ
نیازی
مور
میده
عبدال
مصاحبه
میکند
سرزمین
اصطلاح
جمعه
استقل
اسیا
##عیف
۲۰۱۷
##کده
گذارد
##شای
۲۰۱۶
خروجی
اعد
متحد
مطالب
رهبری
نمایندگان
تراف
قهوه
انگل
لند
عنا
عمی
قلعه
##لد
حیوان
میت
دانند
صاحب
هماه
خوردن
تعوی
استراتژی
ناپ
فرانس
مشارکت
مالک
گم
لم
کشورها
ژن
متری
اشک
##اوری
شویم
خطوط
هدایت
استقلال
of
دون
باری
کمتری
دین
فیزیکی
پلا
سرور
شف
##عهد
پیشرانه
گوشت
تلویزیونی
اذربایجان
عجیب
ون
نبرد
زودی
##ته
##وج
ربات
نیویورک
خالی
نفس
کمیته
متاس
مجوز
اینتل
قطعه
معتبر
##خیر
تکرار
پایتخت
دانشمندان
بزنید
۵۰۰
نمایند
تض
خورشید
تخصصی
تز
رزول
اکتبر
##اتیک
کمپ
پان
ازمون
##قیب
کشیده
غذاهای
##ریت
نفوذ
فارس
برقرار
مبلغ
دعوت
ایند
جلوی
##حیح
پزشک
##ation
حفا
حسن
##ودگی
لوازم
نیک
چطور
قبلا
دمای
تعمیر
قهرمانی
۲۰۱۹
##nt
معمول
پاید
##im
ریشه
اینه
مارس
اوقات
شغل
نژ
##لز
شیا
##اکی
درام
عربستان
##وما
مخالف
##غه
بردن
پایگاه
۲۷
##مالی
۲۸
حکم
هج
بگوی
##وپ
اروپایی
استقبال
افزوده
##زید
خورش
امام
بازداشت
کارمندان
جزو
رودخانه
سند
روزها
رزولوشن
هشد
راننده
المانی
صلح
مسجد
مجاز
توصیف
قم
دندان
لنز
متاسفانه
سازد
سرطان
گرافیکی
ظاهرا
کاخ
بیانیه
##طی
محور
پشتی
منص
رانندگی
##روت
کرمان
##ap
وبس
صفر
##هی
نظریه
the
سوریه
الکترونیکی
##یدنی
تمایل
نیازمند
قبول
سینما
عشق
تابستان
##بوک
متعلق
خلی
ادرس
بوش
لا
میوه
ریس
صندوق
##ورو
سخنگ
کارها
مهاجرت
نر
حسگر
##ایان
تصویری
۱۹۴
ممنوع
اوپ
بتوانید
نوک
ابزارهای
پیوست
برمی
بگیرند
##يومی
جرا
##ازون
رویک
ویز
مطالعات
##od
عاشق
متعددی
لطف
صندلی
عصر
##ايی
رویکرد
رییس
تخت
حین
##em
مردان
۲۶
##زای
وبسایت
##ED
##سای
هیجان
##ul
دیدگاه
بهداشتی
چک
شهروندان
ترور
##قای
امیر
حاوی
مقصد
گفتگو
فون
##ندر
رکورد
شگفت
انداخت
وابسته
گرفتند
برجسته
نقاشی
##یلات
ضبط
الگوریت
هشدار
مهمترین
ادعا
##os
خواند
خن
شیايومی
عربی
مفهوم
##ce
انف
امازون
دانشجویان
حملات
انگلستان
##تیک
خب
عوض
کیلومتری
##کتری
صرفه
ژانویه
یافتن
نسبتا
هرگز
صادرات
تکمیل
سرانجام
##قاد
##ومیت
دف
اصول
نوزاد
خروج
ارتقا
پذیری
سالانه
##ایتی
##زیک
برقی
چار
فیسبوک
##پار
جدیدترین
رمان
اژانس
غل
داند
اگاه
گن
متولد
##په
ابتلا
مساله
جاذ
##um
ملا
کارگردانی
ماموریت
تکنیک
خل
صاد
نوامبر
13
فرانسوی
دوشنبه
خلاصه
##ویس
عرو
کاغذ
هرچه
ارتباطی
دوچ
چپ
تسه
سخنگوی
بیماران
سالی
سانتی
خرا
##لان
ابان
##شتی
##برگ
خورشیدی
مرورگر
ژوين
محدوده
بازیگر
خس
نگاهی
##شو
نشود
برخلاف
بارها
راهکار
۲۰۱۵
پنجره
ترافیک
نگران
##پرت
##ژیک
معرض
میانگین
شرح
##وقی
بروید
دای
انتقاد
سنج
نکات
مری
موقع
فهم
شرایطی
رایج
اتی
شدم
سور
بدهد
اوریل
وای
##راث
##ess
بودیم
کلیدی
جانبی
مبنی
ویدي
کلیه
##شتر
مجله
جاذبه
اتومبیل
تنظیمات
استودی
مجدد
##روشیمی
مسافر
الگوریتم
مشکلی
##بیت
مطابق
خال
##ویش
بارداری
##افت
وعده
بشکه
احتمالی
عزیز
##افع
ناس
ضعیف
نگار
سلی
کمبود
مین
قتل
حفاظت
##un
چهارشنبه
لیتر
استرال
##غیر
میر
درم
تعامل
شیمیایی
قیمتی
شفاف
متفاوتی
##اریس
۳۰۰
##وسته
افتاده
ساکن
استرالیا
امیز
نبوده
گردشگران
سیر
##عب
رضایت
حر
مخاطبان
##سیل
جدول
##ومه
ارامش
##انده
واسطه
فیلتر
بدهید
##کری
##احت
##زر
پتروشیمی
اگاهی
درگذشت
متقا
ظاهری
شهریور
اولویت
باکس
بازسازی
عرصه
عمیق
پالایش
باستان
ترجی
استرس
##گوی
##50
پرورش
فد
پادشاه
شهرت
وجه
بومی
صحیح
سقف
سقوط
نامیده
احمد
حادث
محیطی
##oc
سوز
اندکی
ویتامین
دسامبر
نظرات
##لین
ثروت
##قیان
هویت
تبلیغاتی
##حالی
The
۲۹
سپاه
جامع
مقدم
خبرنگار
انب
۰۰۰
منزل
کارایی
درستی
گرافیک
نهاد
طراح
ببرید
ردی
##خار
##املی
جنگل
##امله
۸۰
سیاره
اوت
طرفداران
بازارهای
محاس
ترانه
حادثه
۱۳۵
زمینی
واکس
متم
سرک
امتح
کشید
میگو
کلمات
زرد
##بند
پاکستان
##بخت
اشنایی
##ایلی
فرار
##راسیون
۹۰
اندرویدی
لندن
##غم
پورت
موج
نجات
##حت
هید
ادبیات
دانشکده
تماشا
ترکیبی
میراث
هرک
دشوار
##اهیم
علايم
##ادها
12
محله
نیازهای
حقوقی
تصاد
سلط
وار
کتابخانه
##راری
افتد
##راس
دامنه
گوشه
##ab
اعتقاد
##غلی
جور
بلی
مرس
۳۲
اوردن
بساز
عد
##اتور
بازه
##برداری
##زام
معنا
ساختن
فریم
امضا
سادگی
پیگیری
فش
##وتو
انتی
جعبه
تولیدی
AM
پیوند
مسکن
محاسبه
ضربه
پرتاب
اسفند
جس
نوار
دهم
مسافران
دوچرخه
چراغ
کنی
گوناگون
نژاد
تنهایی
زندانی
##فیف
بیند
تال
قبیل
تخم
مانع
اسید
اضطر
چای
بخوان
امتحان
مسلمان
دهی
حدی
راستای
رح
پدیده
دریاچه
پذیرش
انگیزه
##گا
ادع
پنجم
کج
له
معامله
۱۹۳
ترجیح
چربی
ریاضی
پرده
فاز
جرم
استخدام
نده
شاخه
الودگی
توق
##ip
اتوب
بهمن
فوریه
کلاسی
مذهبی
محافظت
ایپد
دارایی
شلو
بمب
##غذیه
محکوم
ژاپنی
۱۹۵
حیات
##زیدنت
روانه
اینچ
زنی
درن
##av
پیرامون
سلامتی
۷۰
##فس
پرزیدنت
سالن
برطرف
##ers
جنب
##راگون
میزبان
##دایی
ویديو
Pro
الم
ابری
##مندی
اختلال
بازر
رضا
خوانده
##الد
شباه
فلسط
متنوع
کات
##op
کابل
انح
تغذیه
جستجوی
روایت
خاور
بنزین
گجت
اسنپد
انع
بانکی
تعویض
متهم
انفج
پاریس
US
مصر
سینمایی
عادت
گذاران
پلاست
وات
بشه
##ساخت
۲۰۱۴
معامل
فراورده
شیرین
روحانی
رنگی
##جع
پرچمدار
غر
اخلا
نوری
##یسی
کرو
کوال
ماز
ضعف
تماشای
روستایی
تاج
تنوع
خلاف
##بل
اسنپدراگون
##ثی
صفحات
اسپانیا
##and
امدن
خرداد
لیت
خم
اتهام
اینج
رقیب
۹۹
غول
خواستار
حیوانات
##ینت
##رها
واش
##او
۱۳۷
ذه
##یدگی
بوی
کالی
دیجیاتو
روم
تولد
##۶۰
مشاوره
بعدها
حلقه
موشک
شایعات
بهار
نقد
شوروی
##یکه
کروم
نوس
برود
سم
##خان
بید
مذاکره
مزایای
هدفون
پیمان
۳۵
غیرق
HD
پرداخته
پروتيین
مراقبت
سوي
پنه
200
جر
##ort
جغ
اردی
ابراز
اقیان
نادر
بت
اسمان
دیت
بنیاد
۳۱
##انش
##برت
توییتر
شغلی
کت
توپ
##جوان
##ایف
فراوانی
##ستری
##سری
میرز
خلیج
۴۰۰
دانید
##زاده
دشمن
اشپ
لز
##نشین
##فاقی
پیشگیری
فارغ
جداگانه
فرش
اپراتور
##ate
متعدد
ریسک
جراحی
نیا
جاب
##بهشت
##عود
داي
وقوع
##وکس
همگی
نامزد
خواننده
دستیابی
سوالات
امروزی
تمیز
کارشناسی
داشتم
اتفاقی
بندر
فری
##ادن
شعر
بصورت
جنبه
زخ
متغیر
گیاهان
المپ
اردیبهشت
سخنرانی
##علی
فراوان
تنگ
##ore
فس
یکشنبه
ایمنا
پدرش
اسل
دخ
برایتان
##بول
تاخیر
کارگردان
گیت
روزرسانی
مزیت
رها
تند
دره
خشون
شنیده
شباهت
دستیار
انتهای
مرداد
Re
ایشان
مذاکرات
افزارهای
خوشبخت
تجربی
##گره
پرسش
قربانی
درگیری
رهبران
غذای
نماد
سد
باند
یورو
مید
کشوری
##لفی
نوکیا
##ive
کشد
کاراف
سرپر
ارا
روزه
عده
گیل
میکرد
شکلی
سومین
##منستان
برقراری
##ارا
پیشتر
الف
##ینا
منطقی
تعبیه
##وام
ابتدایی
##مانه
شبه
یهودی
تفکر
عوار
حاکم
تشوی
انیم
خورده
طرفی
موسوم
خشونت
احساسات
اداری
همون
بکار
افتت
ملت
ستاد
سلاح
منحصر
جبر
قول
##وردین
ایس
زیرساخت
درب
کنون
مالیات
عملیاتی
پناه
ساحل
کربن
##انا
##پرس
کلاسیک
فرزندان
##ne
موسس
شانا
هیدرو
چراکه
مدرک
جیم
پاپ
مدعی
بزرگتر
جوش
گفتم
ناد
ویرایش
درگاه
واکسن
مربی
بستگی
دریای
غنی
##ak
زمستان
کاف
فرک
##نیا
تحول
##ابری
تصریح
هزاران
درحالی
ماژ
صدور
رنج
حج
اتوبوس
لغو
ندارید
نگ
##رفه
کلاه
عصبی
##ارهای
مایع
محصولی
هرگونه
##ردگی
##باب
مستند
فروردین
تعهد
فال
اورند
##کم
والدین
هدیه
نواوری
مرات
یکپار
##داث
جوی
انقدر
مخاب
احتر
پری
##غام
استی
گال
ارایه
بگوییم
عمق
هایشان
ماهواره
ژويیه
بلیط
مسيولان
##per
شاد
بالاترین
##ایم
فراتر
شاع
برساند
میانه
کوش
یو
##ستم
حساس
عباس
دانیم
احداث
پارچه
کفش
بگذارد
کارکرد
مهمان
خراسان
تسلا
##ورا
ملاقات
روبه
متمرکز
##ack
مخفی
گش
بگذار
کجا
تخفیف
وظایف
اتمام
##وکر
کوالکام
اسناد
##۲۱
کنگره
منع
تبریز
##زیه
##راحت
۶۴
مشکلاتی
استیشن
دیز
قطر
جری
USB
هیات
خاموش
نواز
##انو
همس
خنک
اکسید
بغ
کوچکی
المپیک
##ie
ضخ
##اما
امو
چوب
فرمانده
پژوهشگران
##ارف
کاپ
بازیکنان
##شاهی
مشهد
برگرد
##if
##ونت
پایدار
گزارشی
مدا
شتاب
##pp
امپرات
شنا
فلزی
طیف
کردید
محبوبیت
اموزان
واحدهای
ازای
داغ
باکتری
طعم
سوار
##البی
میتون
کیلوگرم
##وایی
میکنه
in
نرس
ناگه
تلگرام
هماهنگی
متقاضی
دیدنی
تشویق
خودمان
هستم
##تم
اوج
بابت
کشی
واردات
فدراسیون
شانس
ناز
##ارات
سرم
۲۰۱۲
نوجوان
##ولت
استخراج
ماد
انجایی
تحقیقاتی
and
غیره
هور
برگشت
##خورد
زنگ
اشیا
ماجرا
طلایی
الکترونیک
مربع
##پت
محمود
معاملات
بیل
عوارض
مجد
خریداران
##est
##ity
##بای
الهام
کافه
##ra
خودروساز
بالاخره
اوپک
سيو
##الیایی
غیرم
##گونگی
##بورگ
تضمین
##لاگ
اهالی
وسط
سیب
مطب
شیراز
##میه
زاویه
ستون
وین
سواری
##ظم
##art
سده
##دل
چگونگی
دانم
۲۰۱۳
Ch
وضع
##سن
فعلا
کودکی
عفون
خودروها
جوانان
پردازد
همراهی
تحصیلی
جلس
پنهان
HT
روانی
ویل
۴۵
##میانه
مدارس
شرکتی
موضوعات
##ابتی
همکاران
ناسا
چندانی
انفجار
یادداشت
تحمل
۱۹۱
پرف
تولیدکنندگان
جنبش
قی
پد
ضرب
باستانی
پایانی
دیپل
بیاید
کمترین
پنجشنبه
ایفا
##10
گنج
##لیلی
فیزیک
رسیدگی
In
عفونت
قلبی
خاورمیانه
وف
تابع
##80
زودتر
اسکن
لوکس
عمد
اذر
to
توقف
تجزیه
##مره
اتفاقات
اثبات
##یزه
انگلیس
شست
عناصر
میکنم
فین
فرکانس
بستر
امپراتوری
دنده
##عهده
سوپ
هدست
قفل
معیار
##قب
چیپست
زنجیره
##صاب
بیاور
سازمانی
میکنند
تخریب
30
100
15
فروشی
مندان
##og
##ونگ
بازگرد
کشیدن
گرچه
##۳۰
اخذ
##اهایی
##ایب
کارهایی
##کران
دانه
نمک
برسان
جغرافی
پولی
##ریا
اقیانوس
استخوان
معتقدند
##اصر
احترام
سعودی
میرزا
یکم
##ob
##ضاع
موش
کول
تياتر
ملک
کلم
گز
##گرمی
مطلوب
عظیم
##۸۰
بکن
قز
سلفی
یکسان
بخواهید
افریقا
فلسفه
مواقع
برز
شکایت
مجددا
درج
احم
سبزی
واچ
وام
##ازده
دما
۲۰۱۰
اسنپ
##یاری
موقت
سطوح
جمعی
۱۳۴
متناسب
##رکات
فرمول
کپی
##اتون
گفتنی
ارزشمند
##بتی
فاک
بازرگانی
امریکای
اکث
ماژول
سیگن
نشین
کارگران
اپد
##ریش
هواپیمایی
ویدیویی
بمان
##یدم
##چسب
استن
کالیفر
##وشی
فلز
##all
بالغ
میلاد
خطرناک
حساسی
##ارن
منتق
##کتور
مجت
##اهد
مقاوم
درواقع
متخصصان
خیال
ششم
تپه
بایست
۲۰۱۱
شیخ
مایل
واض
فیلمی
مهدی
##ear
مقی
##زم
مخالفت
##یرد
دود
افتتاح
##گم
استور
تحصیلات
راهنمایی
انگار
هنرمند
قدیم
گذاشتن
##ینو
استع
احتی
توانستند
ایز
کوتاهی
عموم
استراحت
##ge
خوشحال
زای
افکار
لبه
کیب
تدوین
گیاهی
جلسات
##بو
کالاهای
مواف
##ont
برعهده
کووید
مارک
ارمنستان
##کول
اجاره
بری
مداوم
موافقت
اوضاع
سوء
جبران
ساعتی
##ect
سینه
سربازان
صدر
فلسطینی
##سکو
##ولیس
خودداری
دستاورد
اپدیت
##چوب
طلب
11
۱۳۶
طرز
تیره
##وردی
##وتا
چسب
##igh
پادشاهی
نقص
چندی
##اقد
##نگتن
گفتن
بروزرسانی
##ri
تخمین
چرخه
ببرد
##غد
##فاعی
##لر
تدریس
اشغال
مدارک
نمایندگی
تاثیرگذار
محاسب
تقاضا
##راتی
##ضل
##اسیون
قضایی
یکپارچه
عسل
بلاک
##ترا
مخلو
راستا
سیگنال
فعالان
کامپ
##60
ازمایشی
خسته
انبوه
ذهنی
رف
حرارت
قطعی
معد
##الم
کیس
فاکتور
الگو
##ec
طال
مراتب
درای
درحال
خش
پارل
##ver
شکار
دستگیر
شهید
موضوعی
لبنان
واشنگتن
عمدتا
اسپیک
امادگی
خواص
هنرمندان
اضافی
روشی
Sp
فاقد
ورد
مود
نات
روزمره
هل
##وبه
فاش
دموکر
تغییراتی
##ex
سایه
بماند
ازار
##سیر
افتاب
##فای
براورد
جویی
سازندگان
بهش
مستقر
پهل
فکری
گیگابایتی
##ظاه
نوشیدنی
لیز
کمپین
##اتل
مقالات
##زایی
تکه
اشکار
تزریق
شبانه
##ایز
هجری
##گاهرت
کریست
مقررات
پروف
بعدا
پرنده
دروازه
مقیاس
##بک
دراز
تاکسی
ذرات
جلوه
۲۰۰۸
برنج
مشا
##قیقی
خوشبختانه
دهان
عقیده
رغم
ببینیم
عضویت
تجدید
##پس
تدا
خلاقیت
##خوان
شرط
بازنش
دوگانه
##ضه
##ard
مینی
قاره
جک
حاکی
انبار
باشم
مسلح
پروتکل
##عمل
##جایی
##چال
دلخواه
۹۸
مبنای
جذابیت
جنین
##ودر
کنن
##پذیر
افتخار
تولیدکننده
استر
اسکار
بینید
ایرانیان
زیبای
مطبوع
مساحت
خویش
افزونه
پیوسته
مشخصی
نیروگاه
اعدام
##کون
##فره
شهرها
پهن
نواحی
قسم
پرسپ
الوده
##گویی
مدال
معدن
تحریک
دیروز
##کست
پارس
منف
برندهای
کالیفرنیا
جریمه
بگیریم
دیجیت
بطور
گفتند
۲۰۰۰
بغداد
پمپ
##gle
نکند
مشرو
ماری
التح
متمای
اتحاد
گرمای
Pl
یوتی
مرتب
مکال
5G
منظم
انز
لذا
##یتور
##یما
##شویی
ادعای
بدی
اوراق
##اطر
امپر
حساسیت
گور
ارک
پرست
سازه
مرسدس
##اقی
داوط
بنویس
راضی
دغد
##چین
ابن
مربوطه
GT
##ax
بره
عث
محصولاتی
سلطان
بخوانید
عموما
خوراکی
خواهم
##ell
الا
علام
پژوهشی
##جات
قاج
واضح
##one
سگ
تنش
اعداد
دانسته
چیزهایی
##LED
دغدغه
##ایشی
تقاضای
14
لمس
بدهند
حرکات
مقط
##یات
##ast
قند
کوب
مجمع
پره
##سلط
منو
##ist
فولاد
یونانی
گازی
##روز
دستورال
دیجیتالی
ناک
باران
صبر
مارکت
اواس
اندام
۲۰۰۹
##سو
مدیره
سایز
تعادل
ایین
خانوادگی
الح
استعد
De
ماندن
##PS
##وانه
##گونی
گذرد
هفتم
##ik
مترو
یونان
##طاف
کرم
بازیگران
سرگرمی
صدها
##طو
گردن
ژنتی
مختص
##ub
ظه
##ine
اسمارت
داروهای
درمورد
بج
##دامی
ازمایشگاه
صادق
مخصوصا
تعلق
##بیا
##ردن
##کین
مجتمع
نوین
شکر
##ولان
هواپیمای
فروشنده
گره
پوی
##ادمی
ایتالیایی
رادیو
##جویی
مشکی
برزیل
مقدس
اکسی
برتری
پاییز
##oogle
نقره
الدین
انعطاف
##یدند
تیمی
۱۹۲
##اذ
مسیری
وضوح
التحص
عبار
سکه
تبادل
تعطیل
یزد
ادغام
اگهی
اینها
فو
Al
##فیس
کابین
تاریک
تحقق
کلیسای
##سنجی
لات
فیلی
چشمه
کیبورد
بلاف
اینجاست
برداشته
سپرده
مفهومی
داران
۳۳
پرسپولیس
##خاص
##کشی
ارمنی
باریک
Sh
دانشگاهی
زوج
بدل
نقلیه
زومیت
منوی
بخاطر
پزشکان
##شکل
نهایتا
##زاری
مازند
سفارت
##طبی
##پاد
پذیرفته
افسردگی
نوبت
انیمیشن
##راع
16
دیدم
پالایشگاه
کارمند
موزیک
بیاورد
مالکیت
مگر
##ارم
##اباد
رسما
ویديویی
فتح
##ace
##یترز
میبا
مات
نقض
##وطه
معاونت
دستورالعمل
نشریه
بلافاصله
تظاه
قطار
کامپیوت
##راقی
سوپر
##ES
لیتری
برن
فدر
##ادو
نظری
انحص
۳۶
وری
فیبر
اشتغال
##فیه
درختان
##NA
##اطع
کمال
جغرافیایی
شهرک
وکیل
محرک
شایع
منافع
تورم
لاک
دایره
رسند
بزند
گانه
ارمغان
شماری
دايمی
اسپرت
۶۰۰
سرنشین
مقداری
خاطرات
توابع
الکس
تروریستی
##خصی
کلان
هکر
راهنمای
قران
خطی
جنگی
معدنی
سازگار
##30
موتورهای
میدهد
محض
میگوید
رج
عط
##ازدهم
نداریم
جالبی
##گرفته
میتوانید
گذارند
##نوی
سیلندر
ببرند
##ue
میتواند
ویلی
سپری
ورزشگاه
لایحه
جاس
تجربیات
راس
مظ
اکسپ
امارات
دونالد
اکادمی
اثرات
##ارشی
قسمتی
##شایی
مهار
خراب
کپ
حرکتی
ناو
قصه
##ورن
مریخ
دیوان
##شیان
نفره
##se
##گرفت
##نشان
##اورده
نخواهند
نهادهای
نویسندگان
بیرونی
تاسیسات
هندی
##يون
چوبی
حوادث
منتهی
باخت
##th
خواهان
امت
##خوانی
افسانه
۲۰۰۶
##کسوس
علیر
زلز
شیک
شاسی
ناام
سینمای
برایش
رویترز
تعلی
۳۴
نتوانست
زلزله
یخچال
بهم
اضطراب
انال
اشکال
بوت
سوا
ساس
شام
الوم
حمام
تقد
میکنیم
ثبات
نرو
۲۰۰۷
هشتم
##ازن
AMD
فردا
مادرش
پهلوی
الن
ظهور
##رنگ
چنانچه
خدای
تردد
مسک
هیبر
تایل
وبلاگ
##ind
com
بتوانیم
مخلوط
علامت
##ark
سرپرست
##ولین
##TE
الگوی
خشم
راک
دیسک
پیشنهادی
Google
دارا
گویی
##چر
##our
مشاغل
خرج
قضیه
بخت
تایپ
سطحی
ترش
کارفر
##ight
استانداردهای
یاداوری
معلوم
شدیم
بب
##وریسم
عبارتند
قمری
۷۵
طر
##يید
تسهیلات
مقاد
یاداور
رونق
واگذار
تصاویری
##التی
تکیه
پادکست
فوک
فرستاده
منتقدان
۱۹۰
روشنایی
داستانی
تصفیه
کارافرین
۴۸
گرایی
داشتیم
##گام
پیست
##ure
برچسب
ماست
مکمل
چارچوب
لوک
دروغ
کاراک
مصرفی
رقص
تلفنی
##رید
همسرش
پراک
##يه
امواج
موهای
فورد
خونه
بله
##age
بینیم
فا
جفت
قطب
قضا
استانبول
##سمه
اخلاقی
حب
سلس
ارتقای
بپرس
مانیتور
کرمانشاه
نفع
##اپور
مارت
کیت
بنای
توم
گرفتم
کامپیوتری
کوان
فروخته
گیگاهرت
##میلی
هاش
متشکل
کتابی
نانوم
اعتباری
خالص
مستقیما
اشپز
وصل
کامی
خودروسازی
حریم
##ov
برجام
مجسمه
مض
پاور
##جمله
پخت
نیت
Bl
سلیقه
##امع
##سام
بدهی
۱۵۰
خاند
اشخاص
رسانده
خز
شنیدن
بالاتری
معلم
تصادف
50
۱۳۳
##احتی
رام
نداده
بستری
دینی
بنابر
بلوتو
محافظ
ایمن
##ant
ضخامت
چاه
سويد
لمسی
پردازشی
فشرده
بگم
گردیده
دز
شواهد
گیلان
بیز
اي
فدرال
برانگ
جیمز
سلسله
##ندم
وسیع
خودتون
دراورد
تام
تدریج
سرگرم
تربیت
سالهای
##اخته
##ass
مسیحی
کامپیوترهای
۹۵
##کوپ
غار
درونی
##فران
##فش
پو
##فند
اعط
کهن
مغزی
قدمت
بیدار
اکسیژن
صلاح
لقب
سیگار
##سکی
جزء
خاطرنشان
##اوی
سنگی
عراقی
##۱۰
تسهیل
ولت
اوک
نع
۳۷
هلند
مکزیک
مشابهی
فلش
عطر
چهل
وص
##ter
فضاپ
کاربردهای
مردمی
اتخ
اردو
احمدی
نوب
##وتن
##ضان
هایتان
عکاس
ویزای
##اطیسی
شاعر
##انیان
حکایت
##مینی
حامی
۱۲۰
طالبان
Tr
ساکنان
دارن
جوایز
مطلع
##تین
محکم
شناختی
تردید
دشت
نادیده
اواسط
سرچ
مغازه
عملا
##رینی
کاس
خستگی
رقابتی
۸۰۰
الملل
##زده
مفاهیم
روس
تلقی
فرماندهی
مقطع
اسما
پکی
##فری
مسدود
Th
تکامل
مجازات
ابزاری
##شند
اتخاذ
۹۷
##۹۹
روستاهای
تيوری
پتان
عثمانی
نامش
##باسی
قوه
ساعات
برگزیده
ویلیام
هماهنگ
##چاق
##شماری
عبدالله
۶۵
مندی
صعود
##SD
صحت
گشتاور
حدس
18
اکران
##شینی
سرت
گردند
اگز
##ریحی
توي
میباشد
۴۲
باق
فص
عنصر
##شیر
بابا
توضیحات
بخور
الج
##ودا
##یتون
گیرنده
##راسی
لرزه
پذیرفت
امری
اینگونه
ماهیت
خبرنگاران
اندک
دوام
موان
خاندان
۱۳۰
کرون
جانشین
مقادیر
نشانی
حضوری
عدالت
خوز
ایرنا
راجع
دادم
سفیر
متنوعی
مبتل
یوتیوب
##اسر
یار
بریز
اکان
۷۰۰
التحصیل
نیمی
وه
##نوان
ايت
دانشجو
سرنو
الته
##ورهای
سرفیس
تعطیلات
مسکونی
th
۵۵
اطلاعی
جبه
ولایت
پرفروش
##پرد
مسکو
سفرهای
رگ
هارد
رویه
برف
قاجار
سرقت
فت
حیاتی
بینداز
ساحلی
موسسات
##طوری
مسلمانان
نامن
اهدا
زنند
ترمز
شماست
علاق
کارامد
اتوماتیک
##افل
تیز
ضرر
کارگاه
نابود
##الح
شهردار
##بورد
پروانه
تعلیق
##ابد
میاد
برابری
مهاج
st
مسیح
تار
محوطه
##کیف
سنی
سوزی
دب
همت
رزرو
ندهید
نشسته
بذ
دیوید
لینوکس
غم
کاست
سامان
فراری
درا
کوک
صاحبان
اندیش
##پوش
قوت
دارویی
##کلت
مصد
مکت
پتانسیل
مهندس
معاصر
پکیج
استودیو
##وود
25
دوی
گواهی
بارش
۱۲۸
جاوا
##end
شیعه
خات
نمره
امیدوارم
مرزی
سکونت
غیرقابل
واگن
۲۰۰۵
خوزستان
دلیلی
کهک
حدودی
دبیرستان
تفریح
ردیف
##pl
اوب
رقبای
معتر
کردستان
##ud
پارلمان
حقیقی
برون
پرا
خانوار
##عکس
شایعه
##طوبت
مازندران
رصد
بااین
##ارستان
کاوش
شمسی
برش
رطوبت
سوژه
##ثری
چر
قاچاق
اکانت
وحشت
پله
شیرینی
جبهه
اقا
همسایه
یابی
برانگیز
منحص
ابلا
تمدید
ابشار
حامل
پتنت
مردی
کوانت
##منت
سنجش
شعار
گرا
شکم
پیامک
بلوتوث
Ad
ابراهیم
۳۸
اختراع
اندیشه
##یشگی
##عان
قایق
استث
کاش
اخراج
##ونزی
هرکدام
کلام
مباح
سواحل
یادشده
الومینی
Ex
کجارو
قدری
تفریحی
##ill
گرایش
لیس
اقدامی
دکور
ضرورت
##وگرافی
درگذشته
مامور
مطمينا
##iz
یکبار
دوستی
متق
##گردان
قبر
۴۴
باکیف
خودران
مبتلایان
شادی
##درضا
شعبه
خرده
##شهر
##امیک
متمایز
بعنوان
فرایندهای
هنرهای
هوم
عینک
کوچکتر
##وندی
##ire
ایل
کالای
دموکرات
برم
مایکل
مسیرهای
ترکیبات
نما
App
امضای
نوسان
اجزای
بازخورد
سعید
ویدیوی
فرمت
جزایر
استح
نیوز
##io
ازجمله
رفتارهای
جانب
بف
پردازیم
کانون
اعتراضات
فوکوس
رابرت
##اسم
بلک
##۱۹
##ain
چشمگیری
رانندگان
##مزد
Com
پیروز
برترین
سرکوب
شکن
فساد
تاثیرات
وگو
##قوه
فور
نظرسنجی
ایسوس
##اهو
##ock
جلد
مناسبت
یاری
نیس
راهبرد
مسافت
سون
##ix
جوانی
کشورمان
تویوتا
خصوصا
##عش
##نوو
##ادله
نظم
لایت
خاطره
ایراد
۱۳۲
پوشیده
ریخت
ازط
القا
تفسیر
دربر
##ode
جزی
سازند
بات
دهستان
دفاعی
##کنار
خودت
حفاری
اری
##ارتمان
اجباری
##واز
خسارت
##عار
##نجان
##جیه
HTC
ناه
دیابت
##ویدیا
قله
هک
خوشم
رفتم
گفتیم
##جانی
سلطنتی
انویدیا
مصوبه
زندگ
اکثریت
لزوم
##act
سرنوشت
دخالت
##سانی
شوم
##pt
بهانه
مدام
##nter
فرستاد
بگذارند
دبی
##یای
زیستی
##ویچ
جهش
طراحان
شلوغ
مجزا
##مداد
البر
زخم
جایگزینی
فرس
محاسبات
قاضی
هستن
دنباله
کارگر
اسپیکر
##باله
مغن
سرب
فینال
تعجب
##میمی
قرنط
##ang
کاراکتر
حفره
##کوه
شارژر
دیپلمات
ویک
##وات
منصوب
تجمع
درص
نمودار
درخش
رفتند
لنوو
##مول
روحی
##صی
##ونم
عظ
لحظ
راد
پلاستیکی
زایمان
فضان
تخلیه
نانومتری
اعزام
خدماتی
##بینی
زوم
هار
نهم
نداره
امان
استانه
مکالمه
کنین
رفتاری
حدودا
نشر
##عاتی
افزون
مخزن
##لن
تمدن
نصف
سرشماری
##کیک
مترم
انتخابی
ارس
وسیعی
گمان
##ارتان
تصمیمات
##000
مدنی
ضم
۹۶
ناگ
۸۵
Ar
اجتن
##لای
پلاستیک
قرنطینه
طرفدار
اکسپریا
پرطرف
ارش
بفه
بالقوه
Core
##are
موبایلی
غافل
##ارتی
##ile
عف
فراز
کمون
نکسوس
بیستم
بام
جوامع
##قام
بخواهیم
بط
زباله
دگر
ناگهانی
رقبا
رادیویی
۱۳۹۹
چت
خاصیت
شریک
اشپزخانه
امیدواریم
لهستان
تصرف
نداشتند
اسیایی
اجتناب
۲۰۰۴
کنسر
برسند
جسمی
اگو
بران
رویدادهای
نمایشی
هندو
سخنان
پیروی
جدایی
مکر
رسیدند
سول
##روح
درخشان
One
تصادفی
بنوی
گویا
##وو
۵۱
اندونزی
گربه
##جموع
ریچ
گرما
اختل
##کب
کالری
بخشد
اوست
فضاهای
##توجه
کیسه
مرزهای
فرنگی
همیشگی
##کتاپ
خودرویی
بشن
مدافع
تیپ
موانع
##نل
انتخاباتی
قرص
نخواهید
روده
##جاع
نحوی
ايتلاف
شلیک
##رکن
کیش
##ازل
ایام
ملاح
ظریف
برام
باردار
توجیه
دسکتاپ
ابدا
چشمان
قهرمانان
##نگاری
ارتقاء
##لم
فرصتی
ماهانه
سلو
فلور
##نون
سرما
کوچه
شانه
صاف
قاشق
اماری
خیره
زح
غلط
دوش
وقایع
##طوب
Cl
کراس
##ry
ارایش
مشخصه
میخواه
##اداران
همدان
موجودات
ظهر
مصوب
درمی
سکوت
فراگیر
بریتانیایی
کیک
##نر
گمرک
هکت
یابند
تسلط
##eb
انقلابی
پایداری
ابلاغ
محمدرضا
pro
خواهر
##لیتی
والی
انق
بنام
میزبانی
قضاوت
بنویسید
##ریزی
سراسری
مودم
همایش
بشود
ندارم
##پور
راز
زیان
پرندگان
بصری
LED
همینطور
تحسین
بگویم
##ib
امریکايی
فرق
ایوان
##ونز
قزوین
##جستان
کین
قار
لبخ
خریدار
##کیو
لاتین
حالیکه
نامی
انص
درنهایت
متدا
بازرسی
##ایید
استایل
طرفین
سبزیجات
کناره
بپردازید
##بره
بفر
چهارمین
ناپذیر
میانی
نقشی
2017
پورشه
عام
وابستگی
صبحانه
##ابانی
##ite
عقل
انکار
میشد
انرا
خونی
بخواهد
کادر
نمایان
سار
املاک
میک
اثری
ژنتیکی
ونز
##۴۰
سیستمی
پیت
سرمربی
ثروتمند
باکیفیت
کنکور
کشورهایی
رساندن
اولی
دستگاهی
هیبریدی
##eg
##ew
گیگاهرتز
24
خطا
پروسه
محلول
دربار
##اکر
مارتین
کمکی
رحم
پرطرفدار
استریم
تغییری
پیج
دختران
##کوس
اتریش
استقرار
تشریح
هورمون
بردار
برلین
فیر
مباحث
بعید
۲۰۰۳
ازطریق
سلطنت
##ذی
##فورد
ضریب
ارژ
تولیدات
دلم
تایمز
تروریسم
اکوسی
اکتش
تاثیری
IP
##یدر
احتیاج
سبد
##فتی
کاندید
مجروح
کدهای
تسلی
متقاضیان
الزام
ترم
عناوین
##مدت
توده
اگوست
ندید
تاریخچه
تراکنش
بادی
تنفس
##غیب
لن
ذوب
##زنی
خودکشی
##وفان
معبد
ونزوي
زاد
کرای
موردنظر
شکسته
اسپانیایی
همد
##یتان
##edia
##انونی
بکشد
4K
لس
مالیاتی
تراکم
سازگاری
نگرفته
تخلف
درنظر
بروند
ناشن
##وسه
برسید
##ep
اصلاحات
حواس
پنجاه
امدند
تهویه
معده
تفاهم
##فتد
اشتی
نداشتن
بشناس
مغناطیسی
مولکول
اسباب
یهودیان
ریت
زخمی
سرشار
##ord
تعطیلی
بگویید
بزرگسال
ابه
بتون
گالری
۴۳
##فور
سرتاسر
مثبتی
تسلیم
پایش
عضلات
تایلند
واتس
مدیرکل
تله
باتوجه
حسابی
انتشارات
بپردازد
چرب
##غر
##ook
کردی
ساعته
وک
۱۰۰۰
زبانی
ساند
صلی
##عل
نمایشگرهای
اعضا
ماموران
فیلمبرداری
کوهستانی
نبودن
خاکستری
##واب
بدانیم
منطق
رمزنگاری
##امن
التهاب
غیرقانونی
شورش
نوجوانان
جابه
طاق
هرمز
سويیس
حافظ
Ph
گرجستان
مرطوب
۲۰۲۱
هول
محد
راهکارهای
##ولای
تشدید
خودروسازان
##گرو
اشیاء
گویش
مگاب
##ss
موتورولا
پارام
نوروز
دادیم
نباشید
نگارش
شناسان
۲۵۰
افرا
##پایه
پیچیدگی
بدنی
ستار
پاش
##اکت
فیلیپ
##نام
راکت
استد
محروم
پسند
بلوک
لرزش
اکبر
OLED
ارزهای
خداوند
۳۹
خلاقانه
##ویز
##ld
بازمی
##فسی
##ice
SE
هستی
ونزويلا
تقویم
40
هواداران
چیزهای
متد
۱۹۹۰
دریافتی
حرار
رفاه
بپردازند
ازش
ساختمانی
گوناگونی
متداول
مخابراتی
ارقام
اسکات
##ایات
En
اضطراری
پژو
فضانورد
ترغیب
ابوال
##انداز
AP
موافق
پایینی
کنسرت
توییت
An
ریم
سایبری
داروی
۵۷
جسم
نیش
کما
کلیسا
تعمیرات
اختلالات
خصوصیات
امپراتور
پارسی
فوری
نمید
مهندسان
تپ
اکوسیستم
بازتاب
##انیا
پذیرد
حرارتی
نگهبان
##ردی
ژنرال
##اوز
تفکیک
استخر
افریقای
گواه
غرق
شورشیان
وسعت
چرخش
کورت
تبع
ریخته
هکتار
دوازده
هیل
پودر
##ایندی
کلین
مرده
##واد
##ریس
تعرفه
سویی
امین
متحرک
##گرا
صدم
کارش
خمینی
Sc
تنی
سیز
کارگیری
ارژانت
گلوله
for
کاربرانی
لیم
پین
اسلحه
حالتی
خوشمزه
##اسازی
بلا
اواز
##پورت
##یاط
##جین
کهکشان
گشته
کمدی
جین
ناراحت
##CD
اساسا
هالی
شوهر
مارکتینگ
رومی
روانشناسی
اموخت
##ذیری
عمودی
تث
دقیقی
دوری
استدلال
پرک
بدتر
واری
##ستون
درنتیجه
بردند
رینگ
بوم
دال
تبار
تمرینات
وردپرس
دوستانه
مرجع
چشمگیر
##انیوم
اسانی
تلس
لامپ
هام
##باس
کارنامه
۴۷
##فعال
##ژیکی
۱۳۹۵
وج
ایفای
مدیریتی
گنبد
نکنند
نماند
شهرسازی
صخره
عبارتی
ترسناک
مکانیکی
پوستی
حریف
سیلیک
##سمی
بنچم
##ox
##40
تلخ
##ونیک
بچ
##ff
##واک
گیمینگ
زر
##اداری
سوالی
پاداش
زیرم
##شکر
۱۸۹
تظاهرات
##وارد
دانشجویی
هیوند
پوسته
نسبی
سفارشی
##70
دراین
انجلس
نداد
نویسد
نازک
##عدی
کارتان
##ايو
شل
اوردند
نشینی
شریف
CES
کارل
پردازند
تنفسی
کالج
کاملی
پلاک
۴۱
##زان
##ودن
##اندازی
تومانی
نکردن
ناوگان
نگاری
کیم
##ظی
برعکس
اومد
پید
حص
بقای
درایو
2018
مکس
##عیل
تالار
مدنظر
نماز
استعداد
فرانک
مقرون
قطعنامه
##البا
خودمون
گذراند
حروف
استار
منحصربه
خوراک
##ft
2020
قن
اسپیس
Un
##ey
پیاز
##جموعه
##یریه
ساختاری
بهر
پات
محف
بدم
##لاند
نادرست
انداخته
اینطور
اعم
مقرر
قلمرو
بکشید
مخرب
##راز
منشا
مشورت
وحش
تخصی
منظره
داوطلب
ثمر
۱۳۱
افسر
ممکنه
گلی
##وره
بنچمارک
مخالفان
ماب
##بندی
استادی
براورده
کیه
باشی
رش
مخدر
دیوای
اوم
خوار
درامده
عرف
ضمنا
داشتنی
کافیست
پارکینگ
2016
هال
دستاوردهای
##وتیک
بازدیدکنندگان
عاط
ریچارد
ایرانسل
##ail
##دارک
تابلو
غالبا
کاشت
بخصوص
##انسور
نابودی
متنی
بایستی
پراکنده
انتها
ربط
##qu
##انسی
دفع
حاي
زیرمجموعه
##قان
##خر
۲۰۰۱
شهروند
لاست
جلویی
ایستاده
فولکس
پارامتر
زیرزمین
زیبات
تثبیت
۱۳۹۸
هواپیماهای
وحشی
تدارک
##اموز
##خل
گاو
اسکر
احساسی
##باع
بریم
زدند
فاج
##هزار
قايل
پنیر
2019
##ust
۲۰۰۲
خشکی
کامیون
خنده
ثال
مسافرت
شدگان
رواج
ناراحتی
دانشمند
بارسل
دشواری
ممنوعیت
گلو
منتخ
مذهب
##۰۰۰
حبس
غلام
افزودن
ریزش
نیسان
مجل
عزیزان
جابجایی
مهرماه
سمی
میرس
نایب
##مانده
باگ
حوص
کنگ
ستیزه
حاج
تخصیص
تها
همج
بایدن
جیب
اظهارات
اخلاق
شخصیتی
ویزا
پرداختند
شکاف
##اندر
قاعده
استیو
##یسم
استراتژیک
فاجعه
##لیف
بازیابی
بلوچ
امی
##ly
سويی
ارامی
##حسین
حاکمیت
هیوندای
زندانیان
نامگذاری
لبخند
انتظامی
##نمایی
اوکراین
امتداد
##توری
محر
##ork
Ed
باهم
کوانتومی
انتظارات
۵۳
بهای
##اتا
ایکون
کاروان
قوا
چاق
بخرید
قبال
مخابرات
ارامگاه
گراد
##ینوس
مشک
جزییات
تیک
۸۸
مکعب
عذ
غلبه
اسماعیل
شرک
##شیم
پروازهای
ناص
##بزر
##الیف
اوباما
دفاتر
زور
میتونه
الت
مایک
عملکردی
الکل
طلاق
نگذ
مراقب
گلستان
استودیوی
روحیه
دلایلی
طبیعتا
بریزید
ورق
معین
ماشینی
ردیابی
AR
استف
امکاناتی
پوشیدنی
۴۹
دادگ
پیامبر
قراردادی
تفاوتی
شناور
لکه
گناه
نروژ
مجری
لان
حیاط
##نم
وخ
باه
کنج
نقدی
دايم
بدترین
شورا
بیه
حسی
باط
۵۲
اکشن
زین
مالزی
تکراری
قاي
نود
کاتال
کمرب
##اصد
##cc
رنو
##وها
فاضل
یمن
همکار
ذره
اهواز
عید
عجی
سهمیه
سیما
۴۶
##رون
دادگستری
##شوی
تناسب
بوشهر
##تیو
##اصره
80
فلف
نفری
پاره
شاهزاده
##ies
Su
۲۰۲
اوی
ناگهان
خلبان
بارگذاری
گذران
اطلاعیه
دیوایس
۵۴
عاشقانه
##icro
چنگ
پهنای
نیل
دهانه
حسینی
ملکه
تراز
تلسکوپ
محاصره
بپرسید
سفری
نمایی
بلد
طوفان
##ide
##az
مردمان
طرحی
موتورسی
لام
حسابداری
##وتین
رن
هرت
ماجرای
بانوان
نرسیده
فروشندگان
بیایید
قربانیان
##گیل
##انید
سوسی
##PU
سناتور
مسلما
تروی
تطبی
مراجع
سیک
مدرس
گندم
##زون
بیتی
شفافیت
شیب
هوشمندی
رسم
مستمر
بزنند
وزیران
برا
توانم
انی
##مدان
یازدهم
صنفی
دردسر
میتونید
پروفایل
Te
جذابی
استحکام
60
نز
ویدیوهای
##iew
نتوانسته
نیوتن
تحولات
محتوایی
توکیو
##گول
عالم
ختم
علیرضا
جواه
گارد
##ran
##انز
گریه
##يال
خرم
جاهای
ثالث
الهی
پیامد
۱۹۸۰
وقفه
نویسندگی
تعویق
فالو
تکان
##پای
نشدن
درسی
اسیای
اسکری
پاي
یی
سح
مواجهه
۸۶
17
ولتاژ
موتورسیکلت
##لیس
متون
واژ
محمدی
##لیو
متعهد
بیکاری
اعتراف
تزی
موظ
Gal
صلاحیت
فلفل
هاشمی
پهپاد
معکوس
صفوی
ببیند
سوراخ
پستان
اعتی
##زدهم
انحصاری
سالها
سایپا
بنگ
زیباترین
الجز
پیکر
یوس
غیرفعال
رب
راند
##گزار
##یافت
بازیگری
برگرفته
PC
فانت
##ick
قید
##مکن
نامناسب
تاچ
موضع
پستی
بوجود
جانبه
استناد
زاي
##یان
##ime
دکوراسیون
محسن
مقدماتی
Qu
نیستید
تاشو
##الیسم
سدان
مسافرتی
تجاوز
##عفونی
شرکتهای
مکانیزم
##اگو
##سلی
##12
معنوی
##نظ
شری
پویا
پکن
محاک
اشپزی
سناری
##ورها
۵۶
خیابانی
ژانر
نکاتی
##ian
ثان
براش
الک
قراردادهای
عاملی
##orm
مکرر
خودشون
کالاها
کب
کامنت
بسازد
##یکسل
##واسته
زه
##yn
فه
Con
تلفات
احراز
بادام
اورید
خوی
##رول
تیرماه
اولترا
قبولی
موشکی
ضدعفونی
تزيین
##افرا
هیت
گوس
دیواری
ببینند
عجیبی
رشت
##ایپ
ملاحظه
is
ضل
مصط
##احب
تعقیب
ارژانتین
##pe
برایشان
انتن
کوپرت
نامید
محتوی
بپردازیم
ناشناخته
سنگاپور
هوشمندانه
##atch
ضربان
۱۹۷۰
دریچه
اعصاب
##فیک
##ame
##اتوری
نظرتان
de
کاشان
##کانی
جاد
رسمیت
جورج
خطرات
کلمبیا
بول
اشعار
عاطفی
##الله
ریه
مکانیک
هیدروژن
هرد
موجودی
گازهای
میشوند
نمودند
##ادات
تورهای
مهمانان
بیاورید
فرید
پاسداران
پشتیبان
پنجمین
##جویان
تعهدات
مطلق
خبرهای
نظامیان
عظیمی
ید
دراگون
سمن
بدیه
اعتیاد
گرده
ارزشی
گا
اینف
ترسیم
فقر
۶۷
جاسوسی
بزرگر
نظرم
افشا
بداف
دشمنان
سانت
اسرايیلی
سنجی
ستارگان
دستگیری
لزوما
۷۲
یونسکو
معادن
مغذی
تاریکی
سلولی
مسعود
۱۳۹۷
##۱۳
شدیدی
##استفاده
##ith
پایتون
Pr
مقاصد
##کنه
استاندار
میکنید
هاب
تصاحب
تابش
نوزادان
کرسی
۱۸۰
افتادن
##بزرگ
سردر
قش
تیراندازی
افرین
بناهای
اکتشاف
خیز
##تره
بیفتد
محتر
قابلیتی
دوز
مکتب
باها
لیزر
خطاب
بوي
##ash
تداوم
منتخب
اسات
بیاب
فریب
تابستانی
ریک
نمایشگری
مرتبه
##11
سیستان
عهد
کمر
بلندی
۸۴
##وکراسی
لحظات
فضاپیم
میگویند
لطفا
##مرد
اردبیل
هارو
99
جت
چرم
زنجان
پرچمداران
برادرش
##زدی
نویز
پاسخگویی
دانستند
مرو
فراخوان
لیوان
##ost
سنگینی
گود
##ial
کشتار
قره
براتون
مبارز
نوبل
##ens
##ويید
دیواره
گردان
##ستیک
قارچ
زرت
##زاد
پرهیز
And
سیری
چیه
۷۴
مقدمه
نورد
هکرها
##روب
نوسازی
میشن
پسرش
مضر
##axy
کاشی
جامد
۱۸۸
کارافرینی
تخته
کیفی
##مو
##قول
ماهیچه
بهشت
رزومه
گیرید
ترویج
حماس
اپارتمان
##int
نبودند
البرز
یافتند
##گرایی
ناگفته
##ندو
##یشنی
۶۲
۱۸۷
حضرت
ايودی
برید
فرمانرو
برسانند
بستن
بلژیک
خشن
##ومتی
خمیر
غریب
نحو
شیعی
الز
LTE
##الدین
۱۳۸۵
نویسان
اعلان
حوصله
داعش
بنیادی
هادی
اشتباهات
سس
##گروه
فب
معط
محدودی
خوانندگان
##همان
غی
جدیدش
سیاستم
مبلغی
پیوستن
ناشر
فلا
هدر
بفرست
Mi
برادران
اماکن
on
ناچ
توقی
پوند
##خیلی
دستورات
بختیاری
ظروف
روزگار
دفن
کتی
هايی
بمانند
رضوی
تجار
استوری
کمربند
فاط
مرسوم
##ين
درامدهای
نازی
مگاپیکسل
ساق
عادل
مچ
تگ
II
متوالی
یونی
غری
غبار
قطره
افقی
زحمت
ایلام
اقلام
ناچار
شایسته
هری
ادمی
تصویربرداری
فنلاند
کیا
ابزارها
Galaxy
بزرگراه
قف
ماساژ
ژورن
هان
مایه
منا
شنید
تشکر
##ower
بازدهی
لشکر
قبیله
##ثه
ناق
۹۴
##ینامه
مشتاق
بدهیم
رکود
گردی
LCD
بحرانی
ابهام
حرفی
SSD
بسازید
Fl
Le
##ساله
الر
ID
نشون
اطرافی
اله
جنج
اموال
##HD
##ree
خنثی
بدافزار
کشتن
تقلید
معی
ایمان
مهره
موظف
۱۹۶۰
گواهینامه
##یلد
اسکریپت
بزرگان
اراده
عمارت
غرفه
محموله
نوزدهم
برداشتن
سرش
اصرار
اسامی
۷۶
عری
ابادی
##ber
براین
یوگ
بینند
دانستن
گردشگر
کوشش
تلفی
##پن
بیننده
تقدیر
اقوام
تایم
##حد
مشمول
دادستان
ریاضیات
لیسانس
نهاده
۱۹۹۹
کویت
مخاطبین
##بخ
اجلاس
واگذاری
##لیمی
انالیز
کرج
پرین
اموخته
مفصل
حايز
رایت
تجویز
حکومتی
موی
انجامید
میسر
کنس
سردار
بدیهی
۸۳
re
لاستیک
اندازد
قرارگیری
##کردن
##گراف
تونل
نشوید
نشستن
فاکس
IS
ونقل
فبلت
وادار
صرافی
ویکی
ناامید
۹۲
ایتم
یازده
درامدی
طنز
الگوهای
غالب
##دت
##بن
بگوید
##وقت
بپوش
##ساب
مناطقی
بالینی
##ction
کث
توقیف
دیم
##دهنده
خطای
افرینی
مزه
##لیکس
مبدل
##وفر
##DR
توت
اردوگاه
لومی
افیس
۹۳
کبد
راستی
فرعی
داروها
اختلافات
غذاها
##ll
##rom
برپا
مشهورترین
تراب
نگرش
##ویسی
مهلت
جنا
##ورانه
ندر
قدرد
طلای
۵۹
کماکان
##رافت
۳۶۰
لیبی
##AM
ترمیم
ژورنال
##ome
دستمزد
پیشرو
مشکوک
##لوب
خورند
فاضلاب
خزانه
عایق
سالیانه
خمیده
خواهی
مسو
۵۸
##SL
میکنن
شکلات
۷۷
اهم
ذخایر
قوم
##aw
کاز
##ok
مسيولین
گرس
وزارتخانه
الات
افزارها
الومینیوم
گذراندن
مداخ
ترو
گرای
چاره
##الا
بنده
۶۳
گرگ
نینت
اعظم
Air
یاس
بارز
مهاجم
ارایشی
##up
۱۳۹۶
درز
##سپ
کوره
اساتید
سنا
ابداع
مناق
نشوند
##ایا
خسرو
پیامی
ندهد
پیتر
##گراد
دیافرا
گردو
کنجکا
الد
قرون
##ors
##راهای
والیبال
مصطفی
محاکمه
دکتری
اقامتگاه
۶۶
سنین
اقداماتی
MI
نشانگر
معاف
##SM
استون
##ظمی
اینکار
مادران
نانو
قشر
۸۷
##رماه
ویرگول
بازنشستگی
گمانه
داشتید
بزرگسالان
۶۱
مزار
بلوم
##بون
قفسه
رقمی
ببند
برایم
گرمی
199
سیت
گازرسانی
هفتاد
بهادار
کوهستان
جنگلی
##پیشه
معیارهای
نینتندو
بلندمدت
بدانند
##roid
DNA
مترجم
ریل
اثاری
ازان
32
##يوس
تگز
لاز
گرفتیم
##واس
واحدی
خرس
منتشرشده
بلوچستان
عواملی
بشم
##خود
کلسیم
اتری
عمان
##طن
نمیت
هفتگی
بوس
##نگری
##یرو
بیاورند
منظومه
نپ
##پایی
یانگ
اسکی
فصلی
لاین
فردوسی
##بخش
منس
حمید
##طانی
پخته
شص
##AR
میکردم
۹۱
##ink
##ett
سوسیال
شناسند
اپتیک
##ull
۱۹۹۸
منظر
##خارجه
میبین
خواستند
ادوارد
ترانز
دختری
نمایشنامه
##بایی
فواید
اعطا
زنانه
##وداگاه
##شب
##ment
##ject
کابینه
دیافراگم
هندوستان
ندرت
Man
##ابور
##یدان
سرس
نمودن
تويیتر
ساسانی
عریض
استریت
موازی
مناظر
امداد
کریم
ماندگار
قصر
زیرزمینی
واقعه
اذرماه
شکنجه
##out
انطور
##ستن
اورانیوم
مریم
##ID
##لیون
تخیلی
##غری
تکلیف
کارفرما
کندی
اوبر
بدید
##اقب
بلیت
سودان
تحلیلگران
اسکند
اذیت
بنویسم
##ايلی
Am
معناست
اصالت
مدلی
امیزی
عباسی
هستش
##جمی
نوشیدن
انگیزی
اردن
اپلود
تمایز
فایده
##پزش
موسوی
توانمندی
استعفا
کمونیست
توانمند
ایرلند
مهیا
دامن
##اهن
ناخوداگاه
کولر
ویديوی
لرستان
دانمارک
##ug
جانوران
خودی
داوری
عقد
فرضیه
انتقام
تونه
اراضی
فروند
برگه
پرتغال
وکارهای
##ذیب
استین
نامند
بنگاه
مادری
##اکو
پایانه
##حق
کرک
افریقایی
مترمک
موتو
توریستی
مختل
انداختن
اشعه
محفظه
##شدن
##ence
##رود
رول
اجتماع
تگزاس
90
غذاخ
سرپرستی
نوازنده
لیک
تطبیق
فرقی
پارسال
تورب
فان
ایلان
##ake
کوهن
خوند
ویران
استیل
ادرار
فنجان
ببری
یاهو
سریعتر
فرایندی
امارهای
ویتنام
500
دستان
2015
نیستم
مشترکان
صادرکن
لوگوی
شعله
21
سوغ
۱۸۶
هریک
صی
##ارها
یکصد
روال
نباشند
هایم
گوجه
##ata
خاکی
استانی
جملات
انچ
میگیرد
مادی
ردمی
دیوارهای
خامنه
فقیر
##عاع
ترند
بخشیدن
موها
ارگانی
۷۳
القاعده
عددی
##ولوژیکی
ادام
##MI
خرابی
پیدایش
پردازی
سیتی
کویر
اطلاق
هف
تايید
##ويل
فهمید
استعلام
##نال
مبدا
درکنار
بلغ
مدی
ناخال
محترم
خزر
سمنان
##متر
##گردی
فیفا
اطرافیان
وحدت
زع
خوانی
پرش
کتیبه
پرسنل
ممت
فلان
##ee
سنسورهای
قالی
جواد
ازمایشگاهی
وجو
##ings
قریب
تنگه
خیریه
سالگرد
گذاشتند
دموکراسی
قلی
شطر
اصولی
سفت
پوشاک
غزه
##امده
اقلیمی
##ach
##ماسی
موردی
##درصد
انتونی
ترفند
بینایی
تحمیل
LG
رنگار
نارنجی
پرسید
تونید
منق
دستکاری
##کسون
ورک
قايم
مسايلی
متقاعد
مترمکعب
میگیر
معای
##رع
##AT
ارجاع
ناخوش
تکمیلی
دیزنی
ارومیه
شکستن
اهسته
بگو
##ong
واسه
شصت
مادرید
تالیف
عقاید
##21
توه
دوب
پوشه
بسکت
۱۳۵۷
بازگشایی
کاسته
سرعتی
مقبره
داوطل
##ندا
##نتان
حاجی
مرتفع
بیگ
پتر
##ریع
تزیین
هالیوود
بشری
تکذیب
ابو
راهبردی
گار
##ینده
مزاح
جابز
معترضان
139
Mot
##شمه
نوجو
##پردازی
زدم
پذیرایی
ایی
احیا
میگ
##لانی
نای
ایه
سینا
##نینگ
الای
منچ
گرداوری
اقلیت
فک
بدیم
تفنگ
##able
##نیه
جون
سرعته
##ساط
ناخواسته
پژوهشگر
ناخن
پنجه
یارانه
##فیق
ادویه
برخورداری
خاتمه
کوی
مظنون
زیتون
۶۸
برنز
حوا
##نواخت
بسکتبال
گیتار
شاپ
چاقی
##يل
لوگو
الفا
اصیل
ارشاد
بازده
مشاوران
مى
بازیافت
##FC
قدردانی
Not
RT
تبعی
بعضا
کنندگی
برو
##يینی
موز
اعتصاب
لایک
اهنگساز
بکر
مصالح
##ory
انزیم
موثری
##وسیله
حرم
بهک
خند
بنشین
داش
ملایم
##ade
رندر
حلی
خیالی
تبعید
۷۸
ارتفا
ناتو
فانتزی
هیچگاه
کدوم
نکنیم
جادو
##ایدر
##ودین
گرفتار
ساعاتی
##انسون
تروریست
جسد
لومیا
گچ
اسطور
##عباس
##ینز
##تای
##ave
فلزات
##ics
صلیبی
فلسطین
مهاجران
##لک
همگام
##ition
##اقعی
فرماندار
ارتفاعات
ثانویه
هشتگ
سرنشینان
تموم
پند
خلال
Play
اشتیاق
توماس
ربود
مبادله
##وکار
توربو
لغت
داک
پیا
OS
تایوان
گستره
تالاب
##امیکی
اتهامات
##فتگی
درهم
جرج
سرسب
اسطوره
##بلی
مهمانی
اپشن
فرانسیس
هجوم
He
احیای
زمستانی
دارندگان
فیلمنامه
بجای
API
قوای
بامداد
مزمن
کرا
Gr
##ارانتی
چادر
مبه
پرخ
جعلی
##ign
قاعد
##ual
لذی
برویم
مساوی
##شنه
بکنید
هخ
سازماندهی
متال
نیستیم
you
کاناد
##پاشی
##ولوژیک
دردست
Comp
Red
هنرپیشه
عروس
کپسول
الجزایر
پوشیدن
قدرتمندی
متقابل
۸۲
مهد
ابیاری
سوابق
کسری
ورزشکاران
سرورهای
۱۹۹۷
شات
دنیایی
قص
بیانداز
گرین
احز
بق
پازل
Dis
عمران
سردرد
عفونی
سي
دزد
چارلز
سیلیکون
##مم
اپتیکال
مورخ
بورسی
##اجی
نظارتی
شونده
HDR
سات
صدام
ازم
مولفه
۱۹۹۱
##ابون
ماجراج
عیب
ex
رویا
##نگام
امیدواری
مغول
##لوبی
۹۰۰
۶۹
ولو
##یکا
پرتو
جنسیت
کباب
کارافرینان
##نظامی
Sm
##رایی
سلطه
##اع
معدود
##رسان
غلظت
بارسلونا
##بازی
ماجراجویی
لیستی
فرقه
##ah
غروب
جنایت
شوخی
تسخیر
سلیمان
سرچشمه
هدفی
انگاه
ساماندهی
بخشیده
زیارت
بزنیم
درع
پمپيو
##راکی
بلوغ
##روژن
۱۴۰
اکثرا
ناشناس
اذعان
iP
حباب
۱۹۹۴
##انند
نمیشه
پروفسور
بازنشسته
۱۹۹۶
غذاخوری
دیتا
صادراتی
همدیگر
منش
بوست
منز
رویدادها
دکترای
##ینس
هخامن
روت
مونتا
احتیاط
پیامدهای
##بخشی
##بکس
داین
کاغذی
##باران
بگیرم
استری
صدایی
##نیاز
##حاف
اهمیتی
منحنی
الس
احزاب
نوجوانی
عرق
پیراهن
کرایه
واریز
کاتو
فجر
پیشبرد
محمدعلی
رنگارنگ
فستی
گارانتی
بتا
##شاری
گلخانه
عار
بويینگ
غیرممکن
مجارستان
ذهنم
رهایی
نداشتم
استیک
طاه
##لاق
##پرو
حومه
شطرنج
۱۳۹۴
نوتی
فضانوردان
##رعه
معج
مقد
میگه
ناظر
اسکرین
بوسیله
##ML
پرویز
نقاش
فریاد
ردم
دعا
وست
باکو
##her
وفادار
دژ
##ult
۱۹۹۵
کلو
دهکده
کلیدهای
زدایی
##ادهایی
فیلس
##پذیری
بپذیر
تاس
Cont
مدیتر
نامح
##عاب
##ناکی
کروز
تنیس
باک
فلو
خواستم
افلاین
مدیترانه
تانک
ناهم
شاخ
حوالی
تسریع
قزاق
##امتی
اقلیم
سهولت
مزرعه
راهنما
پانزده
SD
ایالتی
منتقد
Dr
کارا
متخصصین
فیش
خوشه
بهرام
تیت
##مایید
عروسی
تریلر
خلیفه
##یرت
معمار
سرشناس
حسب
کوله
##غالی
##رداد
اختصار
رمضان
یادم
کشم
۱۶۰
۱۹۹۲
جعفر
زنبور
ابتکار
مایعات
تقریبی
روشنی
##AN
هرحال
چید
مزایا
دروس
خارق
غیرنظامی
1080
اوپو
فقدان
جنگنده
رقی
شون
قراره
میلان
قواعد
اپلیکیشنی
الکساندر
##تایی
رند
سفره
ناپدید
پیشینه
هرتز
افق
ابرو
علنی
بتن
تونی
بفرو
Br
اریک
موری
ناصر
چگ
ریاض
قاسم
پسران
##ans
تضعیف
فستیوال
مبلمان
محافظه
منفجر
##لبی
ریش
22
##ربع
شیعیان
موادی
بردارید
جنرال
بیاد
##ows
یوسف
##مانت
فید
جولای
مگابایت
برخوردارند
##ضم
همگان
تصمیمی
##cy
ماوس
گیربکس
جلال
باو
بریدگی
افراطی
اصولا
همجنس
الاس
قرعه
کشند
تقدیم
تبعیض
cont
هوان
Mar
ارزوی
جمشید
گفتار
اویز
##ance
##بانه
ببریم
شال
انحصار
جوز
خوردگی
پرکار
##pen
خونریزی
داوران
داوطلبان
نجف
شلوار
مدیات
##IS
قانع
مداخله
سکته
طع
ارای
بلومبرگ
##مار
مدیاتک
##هایش
##cl
سواد
لذیذ
فیت
مرتکب
خیانت
ارمان
ببینم
2014
تحرک
اونها
##ext
هرمزگان
چمن
تایوانی
تاثیرگذاری
داریوش
##oft
Aut
قومی
برانگی
گیریم
نعمت
تلفظ
اعطای
خیس
مردانه
هیچگونه
ارزو
##yst
##طيه
##ype
ایرلاین
تسلیحات
کرانه
عروسک
64
فهرستی
گرفتگی
پاکسازی
##وفی
##ضع
کریس
سوس
##راب
موردنیاز
##پرداز
معلق
اپراتورهای
or
۷۹
برسیم
نتواند
##خوش
CO
گروگان
کاتولیک
##ress
مختصر
شکوه
عکسی
بیانگر
اقایان
معایب
سوق
علل
هایمان
افکت
ذی
##مید
##سیلی
سکان
انهاست
باهاش
۱۹۲۰
۷۱
تحر
##ایتان
شایان
##قیم
قطبی
۱۳۹۰
جانی
محرمانه
بردارد
جمعیتی
منم
اونا
استوار
احکام
سالیان
معطوف
Co
یل
بیابان
چاله
مصاد
ساختارهای
حول
انار
مراسمی
دپ
هوندا
ناهار
توهین
مسم
##MS
نوتیفیک
Wi
بیاموز
رویایی
۵G
حذفی
دانی
زغال
##گاس
مرتضی
توطيه
دوازدهم
ترشح
##ذکر
مقت
##فان
رمزگذاری
رویت
باشکوه
مرمت
##عودی
##ثیر
مملو
برسانید
مانی
ضخیم
ندیده
شرکای
حشر
##روک
وارداتی
##ماق
کلیپ
فروخت
نگیر
مسلط
۸۹
ترمین
سرز
۱۳۹۲
۱۳۸۸
##رفت
بنیانگذار
عیسی
کنش
پرتره
تیتر
باشن
اسیر
##اطه
گرام
باس
کارشان
##اورت
خلوت
پیشگام
الق
بیس
الیاف
صرب
##واند
صوت
##راست
##باد
##فن
##co
دربی
متکی
معلمان
##ase
##ator
دهلی
مطبوعات
مجاورت
فلسفی
ارکستر
برشم
اتفاقا
مونی
گوییم
نگرفت
ريال
سرنگ
دوک
سندرم
پیشت
نوید
دیپلماتیک
بالاست
پیروان
۱۱۰
##ساوی
بهشتی
دايما
دفترچه
اصطلاحا
طن
یق
هیپ
مجید
ویروسی
درشت
اداب
وانت
محاسباتی
ارگان
سازان
##اچ
جرای
##ram
##90
هلندی
Ser
اونجا
۱۹۵۰
اکسیدان
ببخش
بطری
پیاپی
اختی
هوی
امورخارجه
کوبا
لاری
Android
داور
ماندگاری
نشری
کریسم
زانو
##وهان
بمانید
##گرفتن
کوپه
تاجیک
شاهین
شمارش
##تلی
نیامده
##٠٠
ازبک
مجاور
##کولی
نیج
باورند
ارث
خلافی
##oy
تعدیل
##ضایتی
سوالاتی
بودید
گیج
##ونید
علیرغم
هیر
ایمی
##وکو
سریعا
کلر
70
##ارژ
هدفمند
جناح
##old
۸۱
کارگری
ماهر
##نتو
بگرد
##صره
اورژ
۱۸۵
۱۴۰۰
فضاپیمای
پروژ
Inter
بحرین
Wind
احاطه
##طب
سرفه
##اهدی
پیانو
گلد
گویم
جوری
هات
ریلی
گیتس
Super
اتمس
استادان
پاند
بخشید
لیبر
بسازند
##AC
##وهید
روانشناس
##دینگی
ششمین
درصورتی
خج
تقلب
زعفران
انفر
روتر
##ناع
قیام
مبح
##پز
##اهیر
وکارها
بازرگان
تیل
خداحاف
اینک
عضلانی
هردو
هموار
گزارشات
##چیان
##AS
ابادان
کانادایی
گه
ماین
##ستین
معترض
بقایای
محبت
شناسه
شاتل
New
##مری
رسوب
اروپای
پاسخی
ایسنا
نیجریه
کریسمس
دومی
هشتاد
##man
صدمه
معاینه
##اقت
مخازن
مشروطه
مونتاژ
ذوق
ابراه
انفرادی
جماهیر
سایتی
##ابیس
نقدینگی
##وشارژ
کیهان
وضعیتی
درصورت
##گوش
فاکتورهای
بنفش
پهپ
اره
##یکال
۱۹۹۳
علاقمند
یادبود
تکثیر
قیاس
ضلع
حمایتی
بزنم
مطلبی
گریز
اشتباهی
باهوش
شاگردان
بابل
##الو
رویای
بازارها
##ich
۲۵۶
یکنواخت
شوک
تبریک
سکوی
##فف
نورپردازی
##حاتی
Be
اشنای
دردسترس
کمان
لار
##پول
انفل
فود
۳۵۰
مصارف
میکروفون
دارنده
کمپرس
فونت
ویديوهای
بهتون
##ویان
جادویی
رسیم
##رالدین
کاسه
هواشناسی
Gear
Wik
##ناس
##ET
حبی
۱۲۹
موتورز
سفال
متحمل
برندها
متاب
پیشروی
رویدادی
الاینده
##گرامی
ماسه
300
دورکاری
کلست
ساختند
##port
##ph
پیغام
##BM
##FA
دستش
کارفرمای
روکش
شاگرد
توربوشارژ
فقه
مطلوبی
اتفاقاتی
حامیان
بازنگری
شاهکار
نمانده
محتویات
##ینگتن
شیکاگو
سقط
##oot
دبیرکل
هرم
رادار
قفق
پردیس
باخ
کهنه
خبرها
چمدان
اسد
منه
نماییم
جدیدتر
##ron
ساکنین
ساری
وایت
##پنج
شمشیر
دراخت
##اا
برهم
گلس
مامان
ساک
ورژن
اراک
شهادت
میخوام
نواخت
۱۹۸۹
چیدمان
##ipedia
یادتان
بندرعباس
##یشی
ترانس
اشام
اطلس
اسفالت
Apple
روستاها
مونیخ
امشب
اهر
##ser
Res
کنترلر
سپر
دودمان
محتواه
وزیری
ناتوانی
Micro
متا
ذیل
نارضایتی
اپیز
سازهای
اشتراکی
کربوهید
باقیم
شاعران
سلب
##جن
اسکو
35
مشرف
انتقادات
حشرات
گیمرها
بگذاریم
ستایش
اتصالات
اشباع
جلوتر
ونیز
پوتین
اغوش
بهتره
##گیرانه
شعاع
زاگر
ضمانت
پیرو
دیتابیس
قاتل
شیم
سمع
##ایفه
الکترو
روسای
عارضه
پررنگ
کاپیتان
متحدان
##یشان
مخفف
امتیازات
اعراب
فاطمه
کارگروه
معرو
شاغل
اسکاتلند
پز
چن
##ذب
یور
ویو
۳۰۰۰
درمق
##طف
میداد
دیل
بپی
شیلی
انگشتان
هاروارد
AT
شکی
اعلامیه
##ary
##ication
رمزار
کلسترول
عزت
فضاپیما
بها
شارپ
مهربان
همگانی
شیطان
باوجود
کشش
شوی
سرود
##ood
##ER
سیزده
کرونایی
Wikipedia
ناخالص
پاست
گلدان
فرهاد
##لاط
مفیدی
مستلز
##SI
مسا
موضوعاتی
لازمه
ذاتی
فشارهای
پیشنهادات
مستلزم
ژنو
ادارات
تحلیلی
نصیب
میدهند
طایفه
##ربندی
فیروز
کون
اگاهانه
##und
جانور
سويدی
تبصره
بلندترین
an
مطالبی
نوتیفیکیشن
بداند
شایعاتی
جرایم
توربین
نگاران
##یسون
الیاژ
واتی
هزاره
کوي
##شکده
Power
مقصر
دیدیم
کشاورزان
اولد
##سیری
##سرای
حوض
ملزم
رانی
رساله
##uc
موعد
رفتیم
ايین
کاور
علاقمندان
##یتو
منج
دیوانه
۱۳۹۳
##رسمی
سپاهی
میتوانند
متعادل
Pre
فیزی
فرزندتان
مبال
##بستگی
بنزینی
محو
کارام
##زاینده
زره
عصبانی
##کشن
واشینگتن
مسیحیت
نوسانات
صادرکننده
##گردد
سرسبز
گلوب
نوشتم
چل
نامزدی
شامپ
قدرتی
چیزها
لهجه
کریستال
مرم
لیمو
کانس
درهای
رفاهی
دراختیار
گرند
##olog
بارندگی
فزاینده
کامپایل
جولی
فیلد
##وبری
الماس
##میوم
بسزایی
الزامی
اجسام
انست
سیار
##گذاران
کای
جداسازی
دمکر
قلمداد
متنا
جمهوریخواه
A7
##حسن
فروپاشی
جابجا
مطبوعاتی
تنه
4G
شانگ
تهاجمی
شهروندی
##طار
اختیارتان
تلاشی
دیو
اپیزود
زرتشتی
مبارزات
ابریشم
شین
مبحث
Gl
فراخوانی
تساوی
کنده
سره
ساب
ابزارهایی
سربازی
وزنی
مستح
ARM
##یتد
تعبیر
غیررسمی
Sk
ازاین
خدمه
بزار
##oud
شاهنامه
##کنشی
##ung
فهمیدم
معص
مجر
دفعه
##lt
کربوهیدرات
War
جایگاهی
توالی
ارشی
موقعیتی
طبقات
رمزارز
بیایند
میهمان
کنت
انفلوان
رویم
##ویید
##تراست
##ccess
شهاب
۱۵۰۰
##ابن
VR
##ایتد
نهفته
ذات
نمادهای
الکتروم
اذری
ترمینال
##form
##orld
لبنی
دموکراتیک
جهر
خوابی
اینقدر
نشریات
سایرین
حش
زادگاه
Int
فالوور
نط
چشمی
ارگ
صداهای
##خواست
غلات
دیال
کانن
مطابقت
رشدی
تضاد
سوءاستفاده
##سایی
براق
عصب
کالب
دستمال
سرسخت
پاول
بکند
کشورش
سدیم
تعاملی
##ystem
باقیمانده
بعداز
زهرا
استعم
کتب
وفاداری
مسیحیان
میدانی
ورشک
کوهی
اسرار
گنجانده
فریز
سهامداران
جانسون
شجا
بیگانه
فولد
انهایی
26
میگذ
con
##ظره
مولکولی
پیل
شخصا
ویندوزی
ليون
گفتگوهای
فوتی
مقوله
فایرف
ابد
پرداختی
هیچوقت
بیابید
گفتگوی
##af
شستشو
میله
بلندگو
غیرع
دفعات
##خوردگی
رجیست
کله
سوره
اصن
اسپری
##افقی
بدو
درامدزایی
باورهای
ژنتیک
##ادش
گزین
بایر
##سیا
پرم
##سرعت
کوم
منصور
صعودی
ارزشمندی
ترخیص
مازاد
##فات
حداکثری
23
وسوسه
سارا
ني
بروج
مستط
ابتلای
اسیاب
فولادی
حاد
بعدش
شیرازی
محققین
##oll
بخاری
نرمال
تجارب
سوری
عمرانی
استیون
کوچکترین
##ier
S7
ماکرو
یکسانی
دستخوش
دخترش
تداب
جعفری
داشبورد
نخل
نفتکش
دیزاین
ارسالی
الومینیومی
##ارض
خوری
قشم
گرامی
##یرا
بیوتیک
مشخصا
فوا
##vel
خداحافظی
میگم
خدایان
بهت
##ادیم
دوق
هیجانی
##anc
پک
ویلا
علایق
بخورد
##ايیه
لیتی
چم
توافقی
بخورید
Cre
گرمایش
کوپرتین
شنی
مشترکی
شگفتی
ارباب
##ردام
احوال
عواقب
بغل
مناسبات
##oad
As
##حان
محوری
##اقض
تصدی
##خاری
جکسون
سپرد
##شق
باج
##یرانی
##ish
لنگ
پارلمانی
زایی
اینا
For
همچین
پلاگین
PS
##صری
مجلسی
هرات
وزنه
پارتی
طلبی
انحراف
Wh
یکسال
ملحق
استادیوم
جف
فراموشی
زندگیم
موف
فلوریدا
زار
هفتمین
تریلیون
ساقه
Des
##دارنده
ژل
##وشاپ
هیتلر
اتمسفر
مبهم
خوندن
تصحیح
ch
##لینگ
لشک
میگفت
دستبند
هضم
##الیا
دویدن
گرگان
سج
ضای
لارن
تشکیلات
مالکان
زنانی
تدریجی
Windows
قفقاز
میکروب
لود
مثلث
000
منیز
۱۸۴
فست
تمایلی
پرینتر
اصغر
دیفران
حلال
صمیمی
ورزشکار
همسای
اسوش
اگزینوس
قمر
ساف
مواقعی
فصول
محرو
اسمیت
بهبودی
هلال
قزاقستان
فایرفاکس
عیار
رومانی
ادب
SM
رستم
پسوند
ماکس
پنبه
حیرت
##امیز
رابین
بخواهند
Free
انات
##وچ
اتن
##ath
##کسیون
سیمان
##own
بازبینی
سلیمانی
توضیحاتی
اومده
عاش
راکتور
مراکش
نامو
مکالمات
Car
بازهم
رایس
هیچک
##وجی
##ium
وت
##وژ
تقلبی
میرود
کامپیوترها
پسته
##ps
ارن
توریست
بسیج
پوشانده
پتاس
استارتاپی
مصاف
##ical
صحن
انقراض
کناری
کوروش
حجاب
it
##گوار
خوشی
##ert
پادشاهان
نیافت
اسایش
معنایی
##سلطنه
##SS
الش
گرسنگی
تراش
لنزهای
نوروزی
فیلیپین
طرفه
گله
تهوع
۱۲۵
##eed
##کلین
درح
معقول
انتح
پایبند
نوه
۱۹۸۴
حسگرهای
قرض
##ount
جارو
کاره
اصطلاحات
مرکب
##ound
##جانبه
۱۹۸۸
sh
##بق
##شدنی
معافیت
نیو
اقبال
جرات
جوجه
اسپاتی
کابینت
لاغری
##rib
رفر
##UI
##tt
اسوشیتد
##فال
##ys
کبیر
##WC
درصدد
کافيین
45
Tech
##ونیا
پیکربندی
خواجه
be
اشیای
شیری
کارتون
افزاید
بورد
دسر
##فشان
خوشن
هلی
عازم
##صب
موم
پرکاربرد
مرگبار
نیروها
کنترلی
لایو
دق
غیرد
پیری
اغازین
فرسوده
شانگهای
اهدای
##قال
##یتا
##گرهای
بیندازید
چگالی
ناخوشایند
عامه
العمل
ناقص
##نجر
مکانیسم
زرا
۱۰۸۰
مواضع
##وابط
رویکردی
##ونده
پیداست
فیب
وطن
شانزدهم
بسپ
##سار
HP
##یران
کنف
##اندا
سافت
خوانند
IC
افزایشی
قضايیه
یوگا
IM
کشنده
زیستگاه
2013
نواورانه
ناچیز
فیلسوف
نوپا
دلس
##وطی
تماشاگران
انجامد
واکنشی
سینم
Sam
Smart
شنوایی
دندانپزش
Go
##ouch
غوا
##رق
Plus
##فکر
باله
سرطانی
##ایشان
جاست
رسول
ضوابط
##سوی
زمره
مسافربری
لويیس
دخیل
معا
سلجو
۱۹۸۶
وارده
سپه
گورستان
صمیم
دوربینی
بکارگیری
##امداری
فرن
اجزا
##اکا
رسانند
قنات
##مح
مستندات
خودروهایی
شمس
##OM
##ond
۱۳۸۹
حفاظ
On
رجوع
اتکا
##وسازی
GPS
سازوکار
صدق
خوشحالی
فرماندهان
اسکنر
فعل
400
نکردند
واجد
رزمی
مرج
برسانیم
اسپاتیفای
##OLED
موکول
مشاهد
لق
##طح
الیز
بالی
Cort
انچنان
برروی
حالات
زیم
تناس
شورشی
##35
همانگونه
دیداری
##خور
بروم
معن
تیمش
خلاص
خالق
فشردن
##وریان
اسمش
الزای
اورش
دیفرانسیل
کنتراست
فراوری
خوشایند
مربیان
27
شدیدا
انگور
بیا
بمباران
اسفندماه
گرایانه
فروشگاهی
حیث
ساسانیان
اسه
مستث
شمای
##ero
##جمعیت
All
خریده
خودمخت
سیاستمدار
ردموندی
وکل
نخواهیم
مطالبات
منازل
مارش
##جوری
##ادری
برندگان
سالاد
مستعد
تندیس
IBM
Net
##99
یوت
میلیونی
ایدي
خص
##فونی
امامزاده
لوت
##هاست
سانتیم
مهندسین
##65
معجزه
##رضا
شواهدی
رسیدیم
گوسفند
منی
دوستش
پلیمر
عکاسان
۱۷۰
A5
بستنی
##obile
هاف
استثنایی
وایر
مدیا
جویان
Ge
##DA
رسیدم
##بورگینی
دراورده
همدلی
لامبورگینی
فام
##وانسیون
مزارع
ازبکستان
کیست
محوریت
هرکسی
منعکس
شج
اسمانی
راهکاری
پتاسیم
رخت
ریتم
نخورده
شرطی
موفقی
میگن
دربرابر
حیوانی
منیزیم
چنینی
نتف
##وزن
اختیارات
تلفیق
برپایه
معادله
دیش
میشی
مبارک
My
مسایل
28
نشت
نژادی
سرکه
##اپو
360
روبات
قدس
سودمند
اسیدهای
##گمی
۱۳۹۱
ایستاد
اصفهانی
میخواست
انسولین
CD
گوارش
اختیاری
اقتباس
بلوار
فرضی
سرماخوردگی
with
ناف
پايین
MWC
جسمانی
مانور
سبکی
قاطع
##یلند
شرم
شاتر
واک
##انشهر
نتفلیکس
پود
براون
متص
تنبیه
PH
##خوار
رسوم
##دیده
کنوانسیون
##ولف
الزایمر
wh
درخشش
ناصرالدین
بویژه
HTML
حامد
پشیم
تماما
راستش
لاله
ایدز
تخلفات
عادات
شکوف
وکالت
صالح
حالیست
عجله
اورشلیم
یوز
##ift
as
کریمی
۱۹۳۰
زام
اشراف
لینکدین
غیرمست
ماهیانه
امپرا
##استه
##جاز
زیرین
اسیبی
فرزندش
انتحاری
نیازها
شاپور
اینست
نامط
هموط
تره
مرخصی
رباتیک
HDMI
پاها
مترمربع
معضل
۱۹۷۹
عنکب
چرمی
نظیری
##row
مابقی
CR
##سوری
معتدل
##ild
کارد
لرز
##ارویی
Sn
صابون
پرسیده
Se
بلاگ
##متری
شکو
شیل
دکل
پوز
پاهای
بلاکچین
لور
خوبه
گردهمایی
فورت
فیلترهای
اقیانوسی
جاه
اوریم
##وجه
کلینیک
جهاد
ایزد
##صورت
دویست
##att
AMOLED
عبارات
میره
##الین
احض
نهض
محصولاتش
سويیچ
سوییچ
ارگانیک
Max
بوگ
##کاس
مجوزهای
سزار
میکر
##CC
بشناسید
برامد
مواز
عصاره
عفو
لیب
معابر
ریو
حراج
مجلات
بنظر
قدرتمندترین
پژوهشگاه
لک
ژرف
##bo
بانکداری
##سالی
اجبار
بازماند
تات
کینگ
ایسر
نجومی
پیشی
الکسا
مقیم
دلت
فواصل
تاجیکستان
انش
مصری
۱۹۸۷
استثنا
بهز
رایزن
استعف
چهارده
##ترس
شلوغی
تعاملات
##نیم
شیء
لاس
##۱۲
اسپرم
1000
تحلیلگر
اتشفشان
مزد
مشروط
اسکندر
نشدنی
زوای
##let
فوقانی
۱۸۳
بلغارستان
##شتین
پوس
متریال
اورژانس
##ادلات
رفس
اسمی
ناپل
ازاردهنده
الیزابت
امل
کشاند
ناوبری
لباسشویی
##TP
میکس
مخرو
Or
i7
کثیف
هیچکس
3D
میرسد
منچستر
##قلی
دستوری
##لوک
پیشتاز
Full
هلیک
روندی
قوس
گذاشتم
##ational
فرستادن
غریبه
98
بهشون
نفرت
فراگیری
##وینت
بیروت
دزدی
الدوله
##ware
##ارداشت
خطری
زیباتر
##راضی
شکوفایی
نیشابور
غارت
##ویا
تشریف
##ise
Open
ژست
کاند
گلف
دلش
سانسور
##کینگ
##ویک
##ern
زنجیر
خوابیدن
کاوشگر
##oom
##اردو
ناموفق
یکسری
مابین
بیشینه
موتوری
اتو
ترافیکی
۱۹۸۲
نهضت
سرای
تسکین
##۱۸
منب
طبخ
جمال
ir
ویدیوها
فریدون
برایمان
سیارک
CPU
میدن
اموزشگاه
پروازی
شهریورماه
همخوانی
ویرجین
باروری
سنند
مفت
حیط
رادیکال
اپرا
توش
گرمایی
##رخواه
ربوده
##فرو
نهنگ
فلسطینیان
دند
##ریسی
همکارانش
کنجکاوی
دکت
Mus
##واکی
زیاده
میدم
گرانی
امپری
کورتانا
صریح
اویل
شجاع
فلج
یونایتد
سیزدهم
پرجمعیت
اتریوم
Gam
Ult
اشرف
طباط
دریافتند
کیفیتی
مارول
محکومیت
##oh
برایان
کارم
۱۹۸۵
پدیدار
خسارات
##ساعت
پوشی
##BA
پاسپورت
رویال
غیرمستقیم
تفت
ولادیم
ببخ
Sw
ازمایشات
پنالتی
برگزید
بازگردد
توانستیم
##ous
نارا
رومیزی
##تاپ
سیال
تشی
اسانسور
فرشته
زیرد
##اروس
سروده
تشن
مسلم
GTX
دگرگون
کانی
بشویید
نامحدود
فورا
شمع
موضعی
ریزد
خاتمی
رهن
##الس
بنادر
دردناک
چاب
پرسی
لیزری
Im
حیطه
پیشنهادهای
Fi
نظافت
##بریج
محتمل
میمون
##وزوم
۱۲۷
زاکر
##St
##play
قاعدگی
وکلای
##rip
پروپ
تشکل
شربت
کاران
روشهای
تامل
بیمارستانی
هاچ
##یکو
واژگان
منطبق
ترکمنستان
عروقی
##بردار
محرم
##اسیر
##قیر
عضوی
ضربات
Cortex
تحقیقی
اکو
مستقیمی
امتیازی
##تیم
مجاه
سحر
دوپ
پردازشگر
##hone
بازگو
پهلو
نیوزیلند
##ایای
متوسطه
ارج
اکسل
مکل
اوص
##طبیعی
دستکش
نرسید
لیتیوم
##ویو
عضله
فلات
##ترینگ
فعالیتهای
اردشیر
متحول
سردبیر
تکنی
یهود
پدربزرگ
اصناف
وم
لیفت
کودکانی
##مرانی
مسن
ناکام
کمیک
موقتی
پلو
مشهود
ربطی
زاگرس
غذاهایی
تويیت
یوان
کامپکت
اسکان
صربستان
##ions
##earch
عال
##ژنی
پاسخگوی
شعب
کدن
##ندگانی
پرینت
مزدا
میکنی
لف
کالایی
ایروان
ناتوان
RTX
شویی
cl
##box
خشمگین
پذیرای
RS
چتر
زیرب
خلع
ولادیمیر
##reen
مسیریابی
ممل
##خون
ارشیو
برکنار
مرغوب
سردرگمی
بپیوند
مقص
طناب
سعدی
AC
##ولتی
متولی
کلاهبرداری
دیوارها
سنندج
همبستگی
##ai
##۱۵
##قایقی
رازی
۴۵۰
##AP
دیکت
مقاطع
روزاف
وود
##گور
بارانی
نوشتار
فریلن
گشایش
دقایقی
نوبه
Gen
صوم
پناهگاه
##فورت
لیور
NFC
دیدند
Mark
نگری
##اته
اقساط
مادرم
هندسی
شستن
بنگل
سرهنگ
کاک
##قانی
مداری
رپ
جگوار
##ool
##کتان
تیزر
##خانی
الرژی
متاثر
سانتیگراد
IT
ایو
مکات
Cam
قبایل
پارت
پرداختن
پدری
زرین
سعد
دستم
ایرپاد
اظهارنظر
محدودیتی
##چگی
اقتصاددان
ایرباس
بدلیل
حبیب
کلیشه
۱۹۷۵
ریب
غف
نمادین
قشنگ
عینی
##ریفی
سانتیمتر
زاکربرگ
استرالیایی
انتقادی
دایرکت
یان
اسوشیتدپرس
تبی
##روپ
اجناس
مبادلات
۱۳۸۷
تدابیر
بقا
وگر
سوگ
شناسیم
مجموعا
تیغه
بسنده
دکترا
صومعه
##ru
کانسپت
مناظ
##ative
حکمرانی
حدیث
رید
اخباری
بارگیری
تهاجم
تابه
Home
لهستانی
معاملاتی
صمت
پنت
پراید
محرومیت
دوس
##واش
همسرتان
##رخواهی
فریلنسر
##لاقی
پسورد
رونالد
تاییدیه
۴۰۰۰
تفر
توکن
داراست
پسماند
۱۹۴۵
Me
بگذران
کیفری
۱۹۶۸
۱۹۶۹
لحن
##یی
##اریم
ورای
بخشنامه
داروخانه
جرمی
علایم
ممتاز
اعماق
بانی
##ini
عصبان
##SMC
Web
مطالعاتی
طالب
بگیره
AMG
تط
##یمن
نشن
ناامیدی
Em
بهايی
کاربرانش
مستحکم
گیره
اظهارداشت
تهر
##BC
زدگی
مگاو
۱۹۴۰
We
ازادانه
احمق
پلان
بیلبورد
##خیز
##راژ
کمیاب
پرسرعت
حقایق
یلدا
وسواس
۱۹۶۷
افشای
تیون
سکانس
TSMC
بیزینس
ترانزیست
Sec
pl
سرامیک
دیپلم
##مونی
رضایی
بینم
طلوع
IPS
##ظهر
سوختگی
سوزن
اذربایجانی
بمانیم
نزولی
خامه
##فین
تعلیم
La
پانزدهم
گریبان
استعفای
انا
عادلانه
برشمرد
دمشق
تداخل
##ویروس
غیرمجاز
تداعی
اوصاف
Hu
توهم
شایانی
##ثق
واتساپ
رکاب
اپید
کلامی
##گشایی
خراش
مساج
گیمز
ماریا
جنجالی
ساکت
ویکتوری
خفیف
شتر
حکیم
بولی
##موس
بیکار
sc
تابعیت
Ass
مفر
میکروسکو
مقاومتی
فوم
نامت
شمرده
بازگرداندن
مزاحم
کوپرتینویی
تحقیر
ریالی
اکسفورد
بندهای
دلف
سیکل
فرمانروایی
##شمی
رویش
رویارویی
مهمتر
حاض
باراک
ادیان
کسر
اونم
اپراتورها
اساط
متان
وسطی
##غت
سلمان
مشترکین
طلبان
فتوشاپ
##ختن
زنا
##وتون
نسب
##ivers
اسهال
##ble
##پو
##فتن
۱۹۷۴
دگرگونی
شکستگی
150
میلیمتر
##قدرت
سافاری
گند
##ery
##ann
۱۹۷۳
عنوانی
مغلوب
##يوپ
اسکای
تحریر
دنیاست
##باف
یادگار
علمیه
لوس
باشین
دات
ملاک
##lect
سرزنش
هلیکوپ
عذرخواهی
مخصوصی
هخامنشی
پدال
احتساب
۱۹۷۲
##ابهار
کجاست
گوری
##وینی
##15
هواپیماها
کارفرمایان
دبیرخانه
زنگنه
پاب
هرچقدر
یاران
##تس
اسکایپ
احضار
##IN
##ابعی
پارا
بهزیستی
وگرنه
چروک
عمیقی
منعقد
عاری
مدیون
AD
روایات
خوام
شناسنامه
فرایندها
ماتریس
سهمی
بلور
پاشنه
فرستنده
محرکه
ریختن
کوچیک
مزبور
عصبانیت
Xper
اکر
گشود
##سرا
نورون
سوداوری
گذرگاه
هامون
##کد
##ere
خلافت
پدرم
حوضه
تابل
فوران
پشتوانه
اتیلن
ad
گس
ناراضی
TV
ویلیامز
گرایان
نامزدهای
۱۹۷۱
##ضاح
##اهده
##ینگن
دورانی
##الیه
دپارتمان
سیارات
##ision
مشاهدات
UI
بگویند
۱۳۸۶
محسوس
بشید
چابهار
بدهم
تعاون
کلانشهر
رساندند
۱۹۸۳
مقدمات
فاین
##وپی
شوینده
مستر
۱۹۷۶
واسط
ادعاهای
##هید
مسواک
شستشوی
that
##وزیت
کلیس
ملقب
مسافری
Ev
Xperia
بشریت
##راغ
افتخاری
##وزیسیون
زودرس
ناظ
لوح
##خانوار
Inst
##کره
بافی
مناقشه
دایی
مساجد
معلو
Pen
گان
لغات
Ne
بدنبال
##مود
برپایی
معاهده
ادای
هشتمین
انقبا
خلیل
مساعد
گرداند
لگ
ژر
تسلیحاتی
قابلمه
اعتبارات
افتابی
اسپیکرهای
##اهه
دورتر
اقسام
جواهرات
میشم
جیمیل
دونم
##قایی
اجیل
##یع
احمر
are
الخ
زوده
نباشه
دوستانش
استانداری
رزم
دوتایی
##ایندگی
امارها
انبوهی
##کنی
فشاری
تنا
علف
##ارج
اعتراضی
دیشب
Mac
برات
داگ
خریدهای
الزامات
افسران
جما
خرما
بگذریم
Black
قاه
کمبریج
جهات
انعکاس
مجاهدین
پرتغالی
وجوه
##GB
##ital
مردادماه
کلای
چاپی
۱۹۸۱
اندی
2012
همای
رایحه
معادلات
رفیق
##گرای
شامگاه
صهی
اتلاف
##86
اتلان
ذرت
ارتور
مرگش
بازگشته
خوشبختی
انتزا
تورنتو
۱۳۸۴
پیمانکار
اجس
یخی
بکشند
لیتوگرافی
##پوست
سخنران
##زبورگ
اقامتی
تقاطع
ترابایت
دیالوگ
حید
##قهر
مناف
لپتاپ
میخوای
مضمون
##نانی
الکترومغن
گون
سنتر
وبگاه
پاناس
##ribut
چهاردهم
CN
S6
الو
جات
تماشاگر
تفریحات
جنجال
Col
اسارت
پیکسلی
سیدنی
اندازهای
نامشخص
جنسیتی
نشدند
مختصات
مجلل
##لاوه
۵۰۰۰
یحی
##اعت
your
توقع
متابولی
پاناسونیک
توافقنامه
ولز
##فشانی
منتقدین
صهیون
پیشه
اسکناس
انالوگ
ویوو
میدون
زوال
##وض
مشتق
نواختن
هرز
پسری
al
رایان
کربلا
##والی
نمیتوان
الکترود
امپرس
منصفانه
ناکار
##پرداخت
گمرکی
ممان
خودنمایی
##era
نرفته
فلی
فلاش
ضایعات
ارگون
ببخشد
##رور
همک
فتو
##یمه
توانی
انتهایی
منتسب
روزافزون
روزهایی
دعوا
طباطبایی
لج
##ux
##چوبه
ادر
اقتدار
##ماتیک
عشایر
بتای
یگان
متخ
اویزان
پروژکتور
تبر
کارگزار
تخمک
بخواب
ولوو
عابر
##ومند
هوانوردی
بازوی
ریموت
سویا
کاندیدای
1080p
##ابادی
باخبر
گامی
تراکتور
بون
شبی
فرمایید
کاهشی
بیهوده
اوار
اثربخشی
میشل
درختی
هراس
افتتاحیه
ذهنیت
وزش
ادی
نمیدونم
کالبد
فاس
وخیم
ویجت
دیزلی
ماف
١٣
کلاک
شارل
نیتروژن
##ثار
خوابگاه
استعمار
PD
##وظ
الایندگی
نمیتون
بسط
بتمن
اشوب
جزيیاتی
شانزده
الملک
ایکن
تصادفات
ازادسازی
مصدق
##vice
مراد
ادوبی
اقشار
اکتیو
کمپرسور
##میان
عروق
پیتزا
۱۲۰۰
میلیار
##وادور
Type
عاج
لری
##نویس
تمهید
دیرینه
مسخره
زنیم
نشاط
نمیکن
احتراق
۱۹۷۸
داوطلبانه
##ستگان
بالار
##lex
هلیکوپتر
##وبات
سینک
پارامترهای
اپی
مطالبه
غلی
##کلن
##امو
مصون
میعان
هاپ
##oint
##جور
##ضایی
سفینه
نپذیر
Touch
هش
روزگاری
هفدهم
بوستون
جهرمی
لیورپول
##udio
باطل
سرفس
شوق
##ank
##iss
سيول
مصادف
اورت
واپ
گذرنامه
##وترا
نمادی
محورهای
بنیادین
بفروشد
حجیم
##sh
کنفد
فقیه
بیلی
گستردگی
گرمسیری
کیلووات
سالمندان
شدنی
محتواهای
Phot
رهگیری
شارژدهی
World
Moto
کبود
خارش
رخداد
پرتقال
اگزوز
زودهنگام
قطعیت
مینیم
بیندازد
مولف
حفر
##وکسی
هنج
فسیلی
##اریا
اسکلت
هرگاه
800
زان
##وبیل
پوستر
بیژن
بشوند
۱۹۷۷
اثارش
سرن
صفویه
یکپارچگی
##ei
IFA
علاي
مادربزرگ
You
ظرافت
اندوه
تقی
بالگرد
Note
##هايی
قوانینی
El
کارمزد
رخد
مبالغ
پیمایش
امضاء
انکارا
Per
اوین
امتناع
##وسن
کلینتون
تهرانی
اهنی
فرانسیسکو
##پین
##ale
مرحوم
##ماع
##TS
جناب
غزل
پاسخگو
ناهنج
سعادت
مرموز
##میمه
جانوری
افشار
اتشفشانی
منصرف
مملکت
##ve
۱۸۲
سوغاتی
کنفدراسیون
##صلی
##agon
شجاعت
برفی
تول
قبرس
##work
بانوی
بابک
هوس
اغراق
کیو
زل
داروسازی
سهامی
فیلترینگ
ملکی
کفایت
em
مگه
معینی
صدد
بعلاوه
ناپاید
##قف
اندر
اتوما
بزودی
هرکس
Zen
پیکان
سرگ
ماجراهای
قاهره
اتباع
جوهر
##ream
##خواب
##اردی
حصار
بعدازظهر
راهکارهایی
یقین
یب
سپاس
درخواستی
Sur
طری
##دالله
##لوانیا
##چهر
comp
البرت
دوتا
دیگ
بازمانده
اوور
۱۹۶۴
48
im
واید
##con
شایستگی
Sett
ضمیمه
خطاهای
نیکون
app
طولی
##اتین
##ولن
قاط
سمین
##fer
تعاری
کوپرتینو
ایمیلی
فرانکفورت
یحیی
##100
جانشینی
##باتی
الکلی
نفرات
نتوانستند
بایت
##IP
ناپذیری
اتوماسیون
دیرتر
کشیدند
##بسته
نخود
##پیچ
توانستم
متمایل
##25
##انگشت
امکانی
مسطح
گوارشی
جراح
کاد
قدرتمندتر
نتوانند
سانحه
قبض
بیولوژیکی
سوخته
شجریان
میلیاردها
هیبرید
تکنیکی
##رند
فرستد
مخفیانه
ES
##لاحی
##وریا
لانچر
ذن
نگیرد
بیزانس
صلیب
تبیین
Mode
فات
گنجینه
نوشتاری
کودتای
اثرگذار
زوایای
تطابق
دشم
مسمومیت
دهمین
کاترین
پداف
##IC
غربال
راهپیم
چهارچوب
ببندید
گلدن
انفجاری
AS
حشره
لانه
فیروزه
نپال
بنشینید
اگ
##لاسی
##ater
مستثنی
واژن
متخلف
##ON
##پیش
السلطنه
##خونه
درسته
پیشانی
میتس
همتای
غز
غیرمت
کانونی
تناسلی
اصابت
افتند
مبانی
##IV
ترکمن
ph
مستعم
نارسایی
عارف
دارال
کاظم
سکو
چارت
امپراطوری
جاند
تاسف
ایندی
اشامیدنی
نابر
شناسد
فیات
کارخان
جاود
نکردم
پرستاری
تابعه
چیک
نیاید
نخب
۲۴۰
میعانات
حجت
مادربرد
تاکتیک
گرانش
صادقانه
##شود
مهران
کانتین
دوستداران
Edge
راوی
اموزی
فرودگاهی
عذاب
دانشی
##مینگ
تایر
انقباض
##اگون
ین
تبعیت
عبد
جدای
درخصوص
اسپرین
مصوبات
قرق
ریزر
منوچهر
رصدخانه
متناوب
##BS
معتاد
استخدامی
System
صفت
##اریه
لیپ
روبروی
مسال
کشاورز
ممانعت
هپ
بروکس
جونز
لع
مینگ
برمه
مفاد
نیازمندی
لید
معماران
نوشابه
کلماتی
سوغات
تذکر
مرتبا
##رج
منشی
متفق
کمرنگ
دردهای
TC
دیسپ
گپ
##جید
##لیان
پرستار
Mal
RA
سهر
عاق
##کاب
کافیه
جاهایی
##دست
##sc
##DC
بریده
هندسه
کرواسی
Game
ترب
جنایی
شیرده
استوانه
منابعی
فهمیدن
وجوی
غافلگیر
سیاستمداران
میهن
میتونیم
اسماعی
##اسمی
مولد
##منی
خردادماه
گیمر
اکادمیک
طاقت
سناریو
کدنویسی
کارگزاری
مثالی
اورا
View
هاله
##land
میانجی
۱۰۸
دبلیو
##گاد
بوته
گوگرد
صداقت
تسویه
قضاییه
شاهان
دبستان
##الان
##سترن
##rap
بوستان
##ove
وصف
صبا
رایزنی
##پلور
دوقلو
چو
##yt
ماندند
##نشاهی
ناار
فوتو
غیبت
اریز
کمد
شوش
۸۲۰
سرانه
بنگلادش
WW
مکه
گذرانده
غواصی
دوخت
مهی
خریدن
رنگین
##QL
لحظاتی
شاهنشاهی
نویسم
نابار
نوقا
نیفت
تشک
طبع
کشتند
قراي
فامیل
هجدهم
وحشتناک
انفلوانزا
یبوست
##ارند
قرم
زمانه
##رسون
غیردولتی
هموطنان
ویا
۷۵۰
فسیل
شنود
##راکم
Comm
##امان
کشیش
دانشنامه
بازارچه
پلتفرمی
75
##غنی
Mobile
عاقل
##کبیر
مشوق
Sl
چطوری
فراغت
##ومات
بدر
رگول
هایپر
پیرمرد
Watch
نیافته
هوايی
والد
لوی
##تیکی
امیخته
شعری
دشمنی
تفلیس
منبعی
دامداری
##ارکی
فند
سنای
مروارید
AI
محلات
گرانشی
iPhone
مجاری
اکسپلور
انیمه
همیل
روایتی
تجدیدپذیر
پارسیان
##eld
کریستین
##orce
ناسالم
مادون
بایرن
Hy
Up
حکمت
اوان
پنسی
رفتارها
شناسید
کارون
قور
شاهی
##کوف
مبتدی
micro
ماهیگیری
سخنانی
گوان
##نن
up
والت
##ودو
پستانداران
##سانس
ببخشید
برجای
کارزار
برخاست
جمجمه
چالشی
فعالیتی
زشت
متغیرهای
هیچی
بخواند
راندمان
نزن
ازنظر
تمس
ارواح
##خواهی
رجیستری
بسا
مدد
تناقض
وجودی
دارک
اسرایی
ایرودین
Face
داماد
GPU
##بیری
۱۹۶۳
##کال
رسالت
##ict
مولتی
راجر
روزبه
بینش
زیور
فیلمساز
خبره
بلندتر
بیلد
انصراف
دایر
تدبیر
مهاجمان
فریزر
ژنوم
کوسه
گسل
##اتیو
تیمور
معتبرترین
یال
##me
مردگان
نیاورد
##ren
۱۰۵
کربنی
نساجی
##اشنی
یورش
پانصد
A1
پرز
غیرمنت
۱۹۶۶
مپ
##ذیرد
##ask
بیف
اپارت
تومور
##روس
اولا
تبریزی
نیمکت
مدینه
##الحی
اثرانگشت
امیرکبیر
بسپارید
باار
اینجوری
ایسل
اسیدی
۱۹۶۵
Mod
##IA
##چن
##PA
کمیت
##جواد
بصره
۱۹۴۸
خجالت
الود
ویس
##ina
##مدی
##۱۷
##انیت
مفاصل
##علوم
##ony
نارگیل
##بانک
مخارج
۱۹۶۲
ورشکستگی
تاند
ريیسه
اسپین
جوزف
بودایی
ازت
ابرقهر
29
حزبی
وایرلس
بوکس
ساندویچ
تکل
شهرهایی
سومالی
##گس
##قاب
اینو
توالت
اپوزیسیون
دادرسی
بذر
sp
الکتریسی
کارخانجات
##ریایی
تفاسیر
##LS
امیدی
پریمیوم
سوسیالیستی
درزمین
دوبر
وقف
بلاروس
بازدیدکننده
بویر
تورن
عقاب
غرور
##نویسی
مگابیت
کوپ
XS
چاشنی
کوری
اتاقی
##ning
دیدی
غیرح
انعقاد
هاى
الپ
درمقایسه
بوق
ابعادی
دلا
ضعی
سراز
شوالیه
تبخیر
برکن
مدف
نیما
نخبگان
الکتریسیته
اسوده
##لوين
پوشان
تهدیدی
لاغر
55
مستعار
بودی
ناگز
کوهنوردی
رقیبی
خوک
الاسلام
سینی
سیف
بهایی
اتر
##du
##گرایان
مستطیل
##ript
##tect
اجساد
E3
پیونگ
احسان
غیرمنتظره
پاتر
بازرسان
دریان
رمزگشایی
تونیم
تضمینی
اشفته
اسلاید
اسلو
تراس
میخواهید
گریخت
##صرف
اشی
اهد
##منظ
ویکتوریا
منگ
مصمم
نهمین
##وانا
بتونه
بازگرداند
میکروبی
بوگاتی
قیر
شمایل
حریق
تعاریف
Cent
##aster
تابلوی
سرپوش
اتیوپی
غیاب
ازسوی
##یله
##کردنی
راهپیمایی
##sung
تلفیقی
توازن
##نیف
اخطار
اهنگسازی
##ینسون
میرفت
حفاظتی
ادراک
مورگان
صب
اشفتگی
گوشتی
گول
##وکی
##لندی
رسوایی
پوششی
استودیویی
نشیمن
انصاری
##ology
ساختگی
##پورتاژ
معروفی
##ومد
رزین
کدها
خودا
باختری
توری
طبر
##جربه
کارولین
نجفی
همایون
##EC
دیدید
خوانید
تایی
مصلح
فکرش
نامدار
مهمه
لوبیا
چهارگانه
بسازیم
2000
##۱۶
##68
بجز
بازماندگان
جیمی
بومیان
چاقو
لاج
مگاهرت
الفابت
فیک
اختر
۱۳۸۰
نگاره
استنفورد
گلوکز
تحولی
میانبر
چهارمحال
کنیا
زردچوبه
##وغ
بازیهای
۱۷۹
چانه
۵۱۲
دلی
یوتوب
پترزبورگ
##ience
تجسم
۱۹۴۱
دایناس
دارین
متروی
توضیحی
جرقه
دیپ
غیرضر
جدیت
رویکردهای
متی
##ودور
تندر
##ement
یدک
شاکی
حواشی
فح
برنت
سطل
##ica
پیگیر
Display
انتصاب
اردوی
تزيینات
en
##هری
جنازه
شورولت
جوانه
معتق
معال
حوله
##ینگی
##کشانی
لیبرال
گیگاهرتزی
وفور
اجاق
Intern
600
Data
امگا
قدمی
خدایی
عزم
سپاهیان
درزمینه
مسالمت
جسور
پشم
##بدی
##لافی
دیزل
##جار
التحصیلان
بچرخ
میخواد
##ارین
عملکردهای
##انلاین
استم
720
صادقی
زبانه
سرده
مانعی
محصور
ترنس
خواهرش
##۷۰
لرد
متض
کانت
هلد
##soft
##Cl
متب
متراکم
منحرف
جماعت
غلیظ
شکارچی
الحاق
امیری
اثرگذاری
گرمایشی
ناشران
بشین
ماک
فالکون
65
تین
کارلوس
هیچکدام
مدفوع
ar
زمز
عبری
##غانی
ISO
ناگزیر
##نجانی
قبرستان
تقابل
##وکا
##افتاده
منعطف
##ush
موجی
بزرگداشت
حلق
تونس
نوازی
معلولیت
G5
##alk
برهه
access
کهکشانی
پنهانی
Ind
راهرو
پلنگ
سرگی
##شدت
ارزوهای
Ultra
##گارت
##ضباط
##ider
ژنراتور
مگاوات
پنسیلوانیا
برندی
جواهر
Tw
##سلا
ویندوزفون
بکنیم
فولیک
گرجی
سیمای
##ومر
##یافته
ردیاب
دمکرات
##les
سپاری
تفکرات
زايران
گاها
الفبای
برگردد
استعدادهای
پرطرفدارترین
##سلر
۲۰۲۲
مقصود
by
اپولو
ازدست
ذهنتان
لکسوس
شهریار
##احمد
Star
##انم
تنگی
رانده
کلاینت
سوت
وسایلی
هجده
کجای
بنش
دیپلماسی
Opt
سومی
##میلیون
##۱۱
بافته
##راجی
##فیع
Techn
Bu
##ثل
نوظه
ماساچ
بتونم
انشعاب
انضباط
اپارات
بزرگتری
علايمی
رپورتاژ
اندرک
تزيینی
خشکس
ولس
##ونیه
ملموس
وامد
معرف
اسیست
کاذب
ربی
تکاپو
##ادلی
نمایشگاهی
SP
گراند
دنیل
فوتسال
سیلاب
حسرت
خصوصیت
##هایم
تلخی
ویزیت
روحانیون
سودی
پدافند
not
##ومن
##ins
استفراغ
ماساچوست
زمانیکه
همیلتون
##اء
بازپرداخت
##گذشت
نامطلوب
MP
مژه
##فکران
هاشون
تعمیم
ابتلاء
بگردید
۴K
##ونتو
بزوس
##فول
غیرمع
نگیرید
رمانی
##ولار
وحید
نازل
کریستوفر
MIT
شیفت
نداشتیم
سالاری
بنوش
۱۳۵۰
غیرضروری
پاه
Univers
خشکسالی
نامیدند
بخشهای
مفصلی
نرسد
##مادی
##ومتر
۱۳۵۸
RX
اود
مهربانی
پلیر
ود
##پان
پابر
گد
۱۲۶
خوردند
پاکستانی
حیدر
##مام
قزل
تاکس
امریکاست
۲۵۰۰
اهدافی
خاست
میگیره
اپیدمی
##شناسان
مشتریانی
الیس
##لتی
۱۱۵
##وسا
ارکان
پیمانه
Tur
میگردد
بخشند
حضورش
قادرند
##حلال
فرسایش
رایانش
امست
داوود
برکناری
Dig
بالاد
کرین
انتزاعی
تعز
جغرافیای
خودمختار
##بالی
پرباز
تبعات
Samsung
##ثال
تاون
##یسه
واحدها
بفروش
120
##RI
دشوارتر
بفرستد
Mag
ژاک
##جل
رمانتیک
پراکندگی
دراوردن
وهله
زناشویی
##الاتی
معیوب
##way
درنگ
سوزان
تونم
زاه
چریک
##ife
##خوری
سوپرم
ایرادات
##رغ
واع
##گويه
پلاسما
مزایده
۶۵۰
نارنج
At
اکی
دیتای
##ورایی
دارچین
بشیم
بیندازیم
نست
##ادگان
تاجر
فرام
Can
##اونی
فخ
ویژن
سوب
فرمانداری
نهادها
##itch
جوانب
جوراب
DC
js
جنی
##RL
بازم
اسکور
عمرش
Pix
##نشینی
##لوينسر
هلدینگ
بشدت
صید
تجم
95
قرمزی
هفده
اینصورت
اداپ
##ense
##گیرنده
پلک
باتجربه
##گیره
دلنشین
##fin
ترقی
شمش
قوام
باین
معانی
اران
متفر
Gu
جاش
##هان
لثه
برت
ورقه
۱۹۶۱
مونت
##eng
198
نذ
دانا
دانان
مولانا
##ستال
تعاونی
بیمارانی
چرخد
منشور
ST
نرود
انباشته
حاملگی
۱۳۶۰
منسجم
دیه
کاظمی
۱۹۳۹
کتابهای
Met
Ry
دوبار
ولیعهد
برانگیخت
بشار
کست
سرتان
چندگانه
##اسن
نزدیکان
نبودم
اسیستنت
اجرام
Val
خفا
ابزی
خبرانلاین
هوادار
محمدجواد
اشکالات
Back
روغنی
##گرها
گزاره
باورن
##ava
۱۷۸
بارسلون
هویج
##اریان
گمراه
عثمان
عظمت
پترو
بطوریکه
Trans
تیلور
امستردام
وبین
پراگ
دراپ
##ورم
فورس
اینفلوينسر
DDR
هتلی
##بست
مربعی
حسابرسی
ناکامی
DSL
##منط
۱۹۵۸
ماژولار
بدبخت
اولش
نوردهی
##پلنت
سروصد
پهنا
Du
##tr
##راحی
سوزش
کشمکش
مناظره
معض
پیکاپ
باغچه
ارمنیان
بورسیه
هرچیزی
نگاشته
Microsoft
لبنیات
وثی
دماوند
فمین
تشبیه
فقرات
بسنج
گزینش
میشیگان
تخیل
سرزمینی
بیچ
۱۹۵۶
خیار
بدنش
مجرب
##زیلا
غرامت
رفرش
فتحعلی
عود
تکاملی
##rop
نیکول
اعتقادات
هورمونی
ایک
تیرويید
عرفان
##ریکس
علامه
سریالی
2011
نصر
۱۳۸۳
سوختی
جعل
پناهندگان
Eng
خویشا
زرتشت
همراهان
حجمی
زمزمه
EM
##FS
فعالی
مزایایی
استیضاح
Snap
گلیم
اسپورت
رین
نشه
مجرم
##گیلویه
فاسد
ناهنجاری
i5
##يور
ویراست
تیغ
33
##نفر
دیس
نشات
یعق
سرویسی
محسوسی
۲۲۰
##۱۴
هربار
سادات
لگن
##LC
کنستان
قضايی
##الدوله
فیزیکدان
مسوولان
ناباروری
غده
هاوک
دردی
اموزه
250
نتون
##سنت
کابوس
سويیت
Act
##fl
مداد
هنرستان
بکنند
برامده
##ماری
اطفال
مصداق
کوپر
شراب
Manag
اندازند
حتم
شرب
عامی
پدیا
کیهانی
##شناخت
##cycl
کهگیلویه
سرایت
##وبیشی
اکستر
زنم
مدارهای
بودنش
گشودگی
اوتی
پاندمی
تعارض
اخه
اعتمادی
##DDR
کرونای
بادم
واتر
مجذ
##ارکتی
بیداری
شوهرش
اسکرو
پایبندی
امدادی
##لیا
میلیمتری
تریل
فرهنگستان
ندهند
زاهدان
Fr
افرینش
Do
نظریات
ابوالحسن
غدد
بنایی
ZTE
نفی
##شرت
اجری
صدف
بتونیم
اهرم
ظلم
انزلی
باورنکردنی
دمایی
##چاله
##اتان
توفان
اپیک
اروم
امیدوارند
باف
دادید
##کینز
سلف
نیکی
اینس
چینش
اسکیت
لاریجانی
##dr
مشعل
برگشته
کیپ
سندی
واجب
دلفین
سرازیر
XR
واز
پرور
نگهدارنده
کروموزوم
نامنظم
میتسوبیشی
وثیقه
فلیکس
کاشته
قطعاتی
جیر
اهنگی
کاستی
وند
##بیلی
عی
##لتس
مکتوب
پروتيینی
نتای
لیون
##طباق
دیسپلی
##yl
کارتی
ایدی
##بحث
۱۹۴۷
انتونیو
پاف
انه
UX
سکنه
درسال
کوتوله
درحالیکه
3G
رجب
لانگ
##وریس
##ملک
۱۷۵
##ote
گمشده
2008
##ایری
بیکس
روسری
A9
لباسی
tr
##دری
حاکمان
معلول
اشخاصی
يی
انطباق
علمای
میلگرد
بروجرد
##وون
ایرلندی
کودتا
سروش
خوانیم
##علا
##کاک
دادستانی
##تاج
نکنم
نامعلوم
ترکان
##لسون
Par
فرگ
وسترن
گوت
بخو
۱۲۴
متفقین
##رگ
##شهری
پولدار
دندانپزشکی
نوظهور
##iness
تشعش
پیمانکاران
بکنم
اساطیر
پون
میه
ایرج
پیشگامان
متابولیسم
ولسوالی
تلگراف
اکتفا
زامبی
شرف
نین
البانی
عاقبت
مورچه
##GA
Edition
بیافت
شاهدان
جوای
ضلعی
فنلاندی
ناظران
##ورید
اوردم
##حاق
ادما
عبدالرح
##velop
شیار
##by
دیار
پوستان
نمایانگر
##ner
##وگراف
خواندند
غض
۱۳۸۲
ناپليون
نجوم
وگاس
مشتمل
PHP
غربالگری
زنید
RO
ایات
فلک
چغ
پیوستند
Settings
Mate
بروس
نمکی
##قاسم
موجودیت
زدیم
CM
سیس
شینگن
موستان
بشقاب
فرمود
رسانید
مسلحانه
انتقالی
فوتون
شکننده
یکباره
پهنه
بردارند
##رفته
بازجویی
##شاخه
##کیم
##ستانه
پرنس
انگاری
کنارش
گنجایش
منفعت
پم
میگر
مدیت
کشمیر
##شکند
تهدیدات
۱۹۱۸
can
ساید
شیفته
##قادی
پاراد
اساسنامه
##چرخ
منتظ
زندگیش
بروکسل
QHD
وبر
##ریل
انجامش
چسبندگی
##ترال
اجداد
مظفر
میخواهد
صدی
دریک
کروناویروس
یزدی
##اعتی
نمرات
۱۹۵۹
بقعه
##کیه
##خو
ستد
31
##24
##مایه
##rol
ایديولوژی
شگر
برزی
همسو
افتخارات
کنسرسی
منحل
چندتا
لرزشگیر
##cyclop
جیل
پادگان
مهارتی
طعمه
متصور
##گرافی
استالین
##فتان
فرح
ایموجی
قراردادها
موثرتر
اناتولی
والتر
سهل
سواران
S8
جراي
وزرای
##گذر
ثابتی
٢٠
##67
علوی
##وفسکی
سنسورها
##ونو
ایستادن
##sp
باقر
مگاهرتز
هواگرد
ویکتور
موستانگ
هیست
##ریتی
##اقر
پرتوهای
کبوتر
بازرگانان
ویرجینیا
No
صحبتی
مدافعان
مزین
سرورها
دیدگاهی
##ility
پروست
صفات
متعارف
کامپوزیت
فایر
معطر
گیگابیت
دنا
ارتکاب
سیاهی
سفارشات
##پنجره
نبات
ازادراه
دوستانتان
ویديوها
منفج
ایلتس
الهه
برین
جهنم
ایمپلنت
۱۰۲
##ويه
##یزم
##ature
ممنون
وصیت
بازخوردهای
غیرعادی
خرگوش
نتوانید
شریعت
مخترع
ظرفشویی
خطرناکی
##apt
اداپتور
pr
رکن
صالحی
##VID
##ومتریک
عزاداری
گاردین
##وتراپی
##IF
سرامیکی
اشور
اردک
چیکار
هوشیاری
لابی
##amp
ماریو
امپرساعتی
سبا
راسته
نیامد
محافل
ونکو
##ose
سوپراس
رفسنجانی
ملیت
ازشون
بروی
صحرای
تخمدان
خرمشهر
97
هود
سپردن
مفق
##zen
##45
##ward
مرکزیت
اینچنین
منجمد
نتایجی
جوایزی
کوز
شرکتها
پذیرفتن
دورد
یاخته
##itt
۱۹۴۴
همونطور
۷۲۰
صراحت
##ient
بلع
وساز
خواستید
نادری
استانداردها
ارگونومی
کشویی
موند
استقامت
زنجبیل
نرمی
رضاشاه
ریوی
السلام
جاک
##ظبی
ایثار
۱۹۵۷
لنگر
Encyclop
سفرتان
۱۹۴۶
مکلف
کردنش
ورم
پرسیدن
تسمه
بخونید
نقوش
اینستاگرامی
کاپوت
##شتن
هرج
نرفت
صفی
لت
انحلال
ندان
لاگ
ایسلند
پنگ
کران
برگرداند
افراط
ابوظبی
رگولاتوری
برچ
ندارن
اموختن
منسوب
هوشنگ
mac
شنونده
گلاب
عبادت
استخوانی
نژادپر
To
شوت
گورد
##اتیت
85
ser
دیدگی
Str
اشکالی
##فروشی
زیردریایی
##63
کسایی
##کوین
غمگین
چسبیده
A8
##سبان
استند
بپذیرد
هواف
برح
پرقدرت
سیلی
سوان
معابد
تملک
دلپذیر
۱۹۵۴
درمیان
بیکسبی
Cor
Adv
اشنایان
ودر
##جامد
مناره
موثرترین
تابلوهای
پهپادها
برزیلی
##رکشی
درخشانی
خاله
خبرگان
##فیلد
##ma
##بیح
اشع
Char
جال
تقص
this
اسراییل
##وخ
سرنگون
مدیتیشن
۱۳۰۰
بهاری
هاوایی
شکایات
##ats
متنفر
سورس
وو
پرایم
فضل
بازنشستگان
حصول
مهیج
نهادی
پیامکی
قراردادن
##TA
##ارتا
منظورم
##read
حبوبات
کاوه
میتوانیم
لطمه
بفهمید
عتی
مضا
یوش
##ادور
خالد
Encyclopedia
نشستی
الفرد
##چو
یکجا
پروازها
##ike
تشنج
Rem
سما
##press
بینندگان
##alth
Key
ازین
سوختن
۱۹۵۳
طبری
انتخابیه
##اندو
۱۹۴۳
ضعیفی
##line
##face
اینطوری
##میع
گوگ
##روين
دارفور
غیرانت
استمرار
Day
۳۲۰
امنی
جزیی
رنسانس
گیک
##ye
اینبار
نظاره
بینانه
##ايیل
##200
میکردند
contribut
##OR
برسه
مسيولی
سنتز
Fire
دوجانبه
نیوتون
کریستی
سکون
باارزش
مهرداد
نمایشگرها
اسکله
مینوی
پالت
##۹۰
همتا
جلوپنجره
تماشایی
128
۱۳۷۰
جاسوس
درعین
ناارامی
دامپ
یاق
ارسن
خواندید
میادین
EC
کامب
دریايی
بولیوی
متهمان
شدیدتر
ریست
پویایی
Gro
پینگ
فراه
پژوهشکده
مرزها
HM
نایت
مهریه
کلبه
##NS
همسایگان
Vo
المن
واد
##حام
##طال
##ذه
##ari
۱۹۵۵
نبین
پالس
رومیان
دقایق
دوزی
هدفش
res
روبی
نشیند
گشوده
##ثانیه
اندره
بانکوک
مازندرانی
هاشم
لنین
۸۶۵
Is
##پیر
ابج
الکترومغناطیسی
یگانه
مشی
تمجید
انبساط
مجتبی
صدمات
MT
##Force
گیگ
بادهای
##ازان
رولز
نظرش
جوکر
سپاهان
بنویسیم
نایل
تنگات
نوازندگی
موفقیتی
##enc
197
التهابی
کردها
##ورتان
##اطیس
پرتی
مداربسته
2010
پشه
##رویس
بادمجان
سکس
##MA
شنیدم
التحصیلی
شیردهی
##نوس
مانت
مانتو
Av
چاک
##جند
دادخواست
مارکسی
کنجکاو
##VC
فرزندی
۲۳۰
us
مشخصاتی
افزارهایی
۱۳۷۶
غلامرضا
محول
۵۵۰
کنک
۱۳۸۱
درجریان
##اسنتر
مجذوب
حات
اربع
DSLR
##min
موشن
سوددهی
##برقی
گلپای
سیاوش
سويیسی
پوسیدگی
contributors
کرت
مطهری
##ane
محمدحسین
حقیقتا
فنون
مختصری
نمايید
توفیق
##اشتن
لويی
انفولان
منزله
زیورالات
Ap
Sol
##US
بارت
روباز
##سیوس
اتشکده
جمل
افزودنی
شهریه
##Pl
خردسال
پیوندهای
ولف
یقه
##اقبا
نقدهای
ربا
پوشاند
عمیقا
Fin
چرخشی
عبدالع
لاب
هانس
##لایت
میم
میث
بتوانم
##obal
زوجین
رقیبان
صنف
کیان
۱۹۴۲
مرورگرهای
سیتروين
غیرانتفاعی
from
اکنه
شیره
لویی
واین
هرروز
بنیانگذاران
هاد
##bject
لیلا
لطیف
Time
تندی
سزایی
نگفت
##ومین
پیوندی
کلار
شرعی
سوزاندن
سمفونی
چرایی
ملب
هوک
##ندوق
دوج
##ated
خاکستر
عاید
براد
توام
Mon
هرو
##ck
##ange
بزرگنمایی
یادداشتی
##VR
شفاهی
۱۹۴۹
بشنوید
##یفی
##ae
شانسی
##usiness
Space
پیشگیرانه
گوینده
تلگرامی
PCI
Tab
لوز
##PC
##LA
دراور
معارف
سحابی
هارم
##سنس
##OC
مربیگری
مضاعف
جیسون
۱۳۷۹
زايد
اتریشی
ابراهیمی
سیصد
اکسینوس
۱۷۷
افسرده
طلبد
قطرات
انسانها
مقطعی
##32
بوسنی
##Sc
کابلی
accessed
اتان
کوفی
تقلیل
حکاکی
طوسی
میرم
فرمی
موردبحث
غیرطبیعی
صداوس
پیوندد
Auto
##air
روپ
سالار
اسانس
مجرد
اومدم
گوریلا
Pixel
##ژو
فرخ
سروکار
##ache
##ync
پشیمان
34
fl
کنسولگری
میتونم
مصلحت
درش
##وبین
Ste
دینار
جغراف
موزیکال
سوگند
کلیت
دوسال
بعدتر
تعالی
میلر
هویتی
فلکی
خوانندگی
نیاورده
صوفی
قوطی
اینشتین
پلیمری
اکتشافی
شسته
اخترا
جامعی
ملز
شکوفه
استو
##وبا
##ench
عاشقان
خاستگاه
Cr
##ملی
دلیلش
شناختن
وصول
کوانتوم
رقیق
##LE
##سیان
بنچ
توییتی
تفص
##ژیست
حسادت
پذیرند
متعاقبا
تجدیدنظر
Call
##عال
##ستند
ناساز
گاوص
Games
نرد
منکر
گلزنی
۱۲۳
تربیتی
خشت
##۲۰۰
شکمی
صداها
اکسپلورر
##خال
بروک
##رایز
ندادن
دیتاسنتر
##انیاهو
نمیشود
دوستم
دریغ
##عبی
امامی
ارتز
خلاء
##ماندنی
دانمارکی
هافبک
اربعین
##DP
##ورز
استارا
نابرابری
میری
مورخان
اراء
مصدومیت
حکمی
سیاهچاله
منفجره
عشقی
رعد
افول
عمود
کامپون
بفرستید
اپارتمانی
فروشند
چالوس
اصطلاحی
Real
شریعتی
##TC
بردم
دانستم
کنسولی
چابک
##یدها
صورتیکه
سوپراسپرت
Out
خوزه
سنجیده
##پوینت
لوکیشن
هون
چان
پرداختیم
یهو
کبدی
کارن
بشوید
تونستم
دشتی
نفه
هولو
تصنیف
اشتها
##کوپی
الگویی
##ادم
کنگو
مرجانی
Ab
برسم
نتانیاهو
زوری
##ole
ترابری
عمو
سلطانی
Leg
عس
بلندپرو
گوزن
پاسار
کاوی
توشی
##وژن
##طراحی
##ton
کارب
##چهار
بامزه
منقرض
بیرجند
گویای
بیابد
##باش
##مالو
لبنانی
تشخیصی
##BI
کششی
##شتاین
مثانه
##بیان
فرابور
نامد
نداری
دیرباز
اندیشی
اسحاق
اوس
بندری
دورت
اکواری
چلسی
##18
موزیلا
اغشته
سوداور
وجدان
هارمونی
اعظمی
راهور
فازهای
پرخاش
درها
میذ
موت
سپید
نازنین
منافذ
PDF
##ایس
تعریفی
تورینگ
مشهوری
بکش
وهوای
الزاما
do
جونگ
هاتون
تنبلی
اونو
بریتیش
جرايم
حماسی
##وودی
باشگاهی
##ماید
جاروبرقی
ثباتی
فاح
همسان
هرساله
پیشکس
تندرو
Live
مقالاتی
معتبری
۱۳۵۹
میکروسکوپ
امثال
تابعی
سردی
دینامیک
پاشا
##ردوست
کلود
سفرنامه
LP
عمدی
خونین
داروهایی
اتوبان
نزول
میگیرند
فسفر
درایور
دستگیره
هندوانه
قمار
مشارکتی
۱۵۵
تهدیدهای
##atter
برندینگ
ماهیان
نوازندگان
پهلوان
کروی
##EG
رویاهای
لالی
##com
گروههای
iPad
Ag
چجوری
مجرای
گیرم
ایزوگ
واپسین
##ech
##view
نیایش
بازیگرانی
دادگاهی
یابید
کدگذاری
Cloud
A3
چیره
ژرفای
استیم
##اترین
مروری
۱۰۹
دوچندان
پاراگراف
امانت
تاشدنی
تمرینی
تهی
لوي
##شناختی
##یمت
مختار
انتظاری
قرايت
ونکوور
##ختی
کارامدی
منوط
##غیان
مندرج
جلبک
۱۹۵۲
درازمدت
سناریوی
اریزونا
BM
اجراهای
نیرومند
هوازی
قدمتی
##۲۵
۱۹۱۷
هخامنشیان
طاهر
طبرستان
ابرخود
بویراحمد
تقصیر
خودک
خواد
خواری
اشن
دریافته
نوشتند
It
ابوالقاسم
man
رکوردهای
۱۹۳۶
Art
پیشکسوت
##حاب
نوتر
##ینگتون
فانوس
جایش
##رنگی
##رویت
پرستی
##ونتوس
700
شنویم
پاکت
ارنست
Pay
یام
چارلی
اردوغان
##اندی
کربنات
فیلیپس
زحمات
تشریفات
تمهیدات
سازها
دورهمی
III
سوسیالیست
##اوردها
تماسی
توتال
Wear
لیف
بزرگسالی
پیکره
سقفی
نوزده
بمبيی
Chrom
بیاوریم
پارتیشن
نقی
اریا
استوایی
موه
نظمی
۱۹۰۰
موقعی
بلندپایه
انبارهای
غلامحسین
Intel
کلیوی
##قدس
بفهمیم
خاوری
سندروم
براى
انستیتو
کويین
##onor
لیکن
الکامپ
۱۷۶
##اهب
الام
تجلیل
تعصب
مهاجرتی
روزنه
مموری
باطری
۱۳۷۵
گرسنه
سلجوقی
CC
قاسمی
یوبی
##ناز
استرو
اسپر
پرچ
شدنش
##uk
جیپ
##ويیل
بگذرد
کامپوننت
##oss
مینیمال
گاوصندوق
جوابی
##ley
۱۳۷۸
ترانزیت
ایزوگام
بوز
لول
##lin
فرور
نکشید
سوپاپ
زهره
مرجان
گذارید
گرفتید
نباشیم
مدرکی
37
میزو
۱۹۱۹
کاراکترهای
##باکس
بازت
کالین
تصورات
ممنوعه
ربع
ورا
##دگی
اوبونتو
##مالک
بنویسد
هت
پشته
یادمان
۱۸۰۰
محکمی
روباه
فسخ
##عارف
##22
پرستش
الحاقی
Light
بالش
نیرویی
حواستان
36
##یلت
افکن
تنب
ویرایشگر
گزیده
سونوگرافی
مثابه
کالاهایی
طلبانه
خواهش
ادراری
موردش
اکورد
##وين
توپخانه
##eek
Now
لیر
ترشی
مذاکراتی
Rob
##امدی
بازپس
مرمر
نمیر
ازادگان
میزد
بیسیم
سفیدی
تسک
پرهزینه
MS
##اهنگ
۱۰۴
سوپرمارکت
38
int
پچ
کلکسیون
نجیب
دخانی
شامپو
سفرها
ازانجا
سینماهای
سانس
لیلی
سیمرغ
##ular
معاشرت
بوند
فروشان
بلر
ارزها
##شکنی
امتحانات
دزدیده
بشمار
عامیانه
پام
##very
دوبرابر
Hel
نزا
تومن
عوام
وارنر
دوبله
رباط
دیویس
زمانبندی
دوستانی
تیراژ
مولوی
فرابورس
هلو
##یناسیون
##وانده
##مایش
اسفندی
خت
وط
دهقان
##ets
یونیور
کبک
مسنجر
سطر
نظرشان
افتادم
بنشیند
پاسارگاد
سبزوار
مراتع
باغی
نسبیت
موریس
مارشال
جنگجویان
96
قو
##book
نامر
یادماندنی
۱۱۸
گفتگوها
رحمانی
بیتکوین
Ant
Hot
##چک
استیشن۴
Secur
WWDC
سرگیجه
DS
دسی
##cess
ماهان
بهبودهای
جوشکاری
##ization
غیرمعمول
##ولنز
فراخ
پرسد
۱۴۵
اندرکاران
زهر
ابوم
۱۳۲۰
دوردست
چیده
نوادگان
لاهی
##EE
راب
بازو
خواندم
macOS
at
بخرند
##ریکا
##خواهد
پرن
##ages
یاقوت
چا
چرت
##جوهای
اصحاب
فداک
عاشورا
HIV
بعث
جاز
صبور
هرچی
رندرهای
همش
گوهر
مغرب
هندز
قلمروی
سموم
فورب
کنفرانسی
##ubl
نسیم
نمیده
شهدای
بدونید
نویسند
##شاء
React
##ml
کشتیرانی
جستجوگر
معضلات
روتین
دوخته
خبرهایی
رحمت
Project
کتبی
دونه
دوحه
اسقف
مشرق
##کیان
ملوان
منفرد
مساحتی
هامبورگ
##ودنسی
مجرمان
گنگ
##میک
گلبول
منظوره
۱۶۰۰
گذاریم
۹۵۰
##19
##ولید
کوچولو
۱۶۵
تکلم
V8
##حلی
##ير
یادگاری
اکتشافات
اکسترنال
روپیه
باخته
اوا
نکنه
کرایسلر
گودال
##شتان
هدایای
واکسیناسیون
نوارهای
کاررفته
##اسو
بیفت
ماورا
پوشک
بندد
Bar
XZ
تجهیزاتی
فهمیده
مجیک
رمزهای
اینجای
میتونین
خانی
دستشویی
نوستال
نفرین
پویان
email
قوچ
##انوس
ادا
ویلسون
SS
توریسم
قح
##ودار
شاهرود
me
##بندان
عنبیه
##فیعی
بگیری
صحرا
رقابتهای
##irect
کاراگاه
ملاحظ
مادربورد
بلوط
فاتح
سهراب
بیاندازید
پنتاگون
یوشی
##فرد
فرزندشان
بگذارم
پاوربانک
درویش
بازنویسی
بلندگوی
قضات
##لحاظ
زاینده
he
قاف
##راینی
اکوادور
ذهنش
استودیوهای
گینه
کولی
نصی
138
بیهوشی
Sch
##عاش
##چری
ستم
مسیرها
ثروتمندترین
مستعمره
پران
داون
2009
Che
میامی
بیاف
پروتون
Ryzen
SU
درگ
ارتودنسی
چیزایی
معیشتی
Mo
S5
سرگذشت
بالعکس
موسسان
ازدحام
##ideo
فقره
وانگ
برنمی
سرپوشیده
URL
وفق
##شانی
بودا
مرغی
طبقاتی
GeForce
استکه
خوندم
محتاط
معلولان
۱۹۳۸
میدونم
##فید
متفکر
کودکتان
##سیت
یاي
معرفت
مجاب
بگیم
۱۴۴
۲۷۰
بمال
لعاب
استرداد
تپنده
##board
RAM
بازطراحی
نشیب
بخشش
نیکلاس
هولولنز
کرزی
کمونیستی
دریاب
۱۹۳۳
لشکرکشی
اعتقادی
احتمالات
برهنه
##۳۱
مسج
تقارن
##مداری
دنبالش
پناهنده
بیاموزید
اجماع
۱۳۵۶
مزاحمت
اقیانوسیه
صداوسیما
جغرافیا
##اهل
اروپايی
##au
ازلحاظ
کاراي
جاوید
حرام
بازگردانده
بپوشید
پربازدید
خفاش
چانگ
##عادل
پشتکار
دیدارهای
برانگیخته
Pol
هیم
##IM
مومن
منسو
سرایی
نرگس
تیونینگ
نامريی
تنبل
پلات
قرقیز
جامه
فوریت
##یدنت
##تیس
ماي
افرود
##erg
هیدروژنی
##awei
##رژی
##16
مونده
نابین
مصادره
اوتیسم
کدی
##rain
وهم
مردانی
ناسیون
بدنسازی
درخورت
براشون
راندن
وبا
##ورف
##اقلی
اورک
حراست
ارتعاش
##پیچی
نبردهای
protect
##ونیم
سوایپ
سمعک
اهک
مهمات
رونالدو
##ادامه
ریزند
اژدها
##تمام
یکدست
کلاژن
##ution
رحیم
نروژی
فرمانروای
اینم
تحکیم
un
نترس
خوانس
سریلان
گرامر
##افعی
متمادی
اومدن
دزدان
کارايیب
bl
su
تایتان
امولد
##کسل
عطف
عنکبوت
احمقانه
Link
##eth
کامپایلر
##علاقه
هندزفری
نوردی
##یرات
زوریخ
گزید
بازن
گذرو
انجیل
##گواری
مارکس
کفپوش
فوجی
تیتانیوم
کارولینای
منسوخ
گفتمان
بانو
ارامنه
فریل
جانباز
##فلد
نادلا
سرنگونی
واردکنندگان
اسپانس
درخورتوجه
گیرانه
ملبورن
##AD
هما
بیضی
اسا
بدنتان
##eral
##وبر
##95
برکت
##وردن
سهیم
کتابش
کاریک
Phone
پویش
##ism
##ابنفش
##ولیک
##gram
شدی
بیو
دلهره
ستوده
پلن
۱۳۷۷
موازات
سرنخ
پاییزی
سبقت
مبادا
۱۹۳۷
کاتالوگ
اسپا
بخوای
دران
رواد
دیترویت
بیابانی
جواز
عرفانی
یدکی
چری
همە
ایلین
پانور
لارا
شوراهای
##nect
کاراموزی
برامدگی
اوهای
بازگشتی
Huawei
##IT
اشوری
##باغه
سختگیرانه
وارن
ووهان
چیل
##ana
ابرها
فریلنس
Enter
جونی
المپی
##obe
حت
##۲۴
##ارتز
نبردی
چنگال
سلجوقیان
نثر
اولم
عوا
خوره
بخوانند
##BO
بارون
مالتی
نیمکره
تراژ
انسداد
##ally
سمند
فتا
##دادی
عنان
##جاج
تمایلات
##طرفه
گویید
فسفات
قورباغه
تکی
اماتور
کدو
##کریپت
سمپ
##وردان
حالم
علاء
شارون
۱۱۴
نهادینه
تایلندی
Joh
ترن
##افرینی
شهدا
تکواند
نگهداشت
برگردیم
کلانتری
رشوه
طوای
ایپ
##ices
Design
Off
##کلي
۱۹۵۱
کووید۱۹
##انیک
مخروطی
گیلاس
فروشد
تکالیف
نقاطی
میخوان
شرا
سیبری
##HS
اقتباسی
منصوری
ترانزیستور
بستگان
تصدیق
حراجی
##زامی
##قاق
##ym
ویولن
کاج
خواستیم
فریمورک
##پسند
پرسیدم
منصب
لیتوانی
انصاف
استریو
ایرودینامیک
اکواریوم
##پرسی
قرارگرفته
درهمین
فلورانس
نتی
##۳۵
##وزا
جنون
ارزنده
مفسر
اتاقک
نابغه
زومجی
وبینار
لوب
##پایان
##EN
نیستی
نیستن
هنگفتی
نیکل
##مردان
قاعدتا
Ver
خازن
کویل
##زیکی
بازنده
دیابتی
ویرانی
رژیمی
ناپایدار
CSS
جثه
گلایه
اشکانی
برندسازی
بخورند
برحسب
ملزومات
خلو
بیات
بیانی
##لتون
معیشت
توربوشارژر
هابل
ایپاد
مرادی
هوشیار
اوپن
باکتریایی
ژرمن
Vir
بسر
##نبرگ
امینه
یکه
بگه
صادره
ab
مالت
##قر
برامون
کنجد
غریبی
Mali
CV
راش
مفقود
NS
رشید
##ناج
##اسیا
##سوس
##حص
قربان
##ومتری
ماگ
تسلیت
##app
##unch
زرتشتیان
CS
##Book
الص
دمن
میبرد
فعالیتش
فردریک
سمتی
مومی
پیشبینی
##erson
کنسرسیوم
ذوال
ایرب
کرنل
اسکاند
۱۳۶۷
تظاهر
پافشاری
ایشون
مریض
##زادی
ادیب
کرمانی
دربرگیرنده
##EL
##اسپ
مشاهیر
طرق
قفس
ایینه
فرابنفش
##اين
شعرهای
مسافتی
عنکبوتی
یعقوب
تبت
لخته
اخرش
ملودی
##اتری
بنت
شیطانی
مذاب
مدرنی
Rec
انالیت
کاشانی
بته
هریس
دیلی
##رايی
۱۳۴۰
محفوظ
مصور
اسپیر
##فسکی
Cle
اعی
سازش
یونگ
اصطکاک
پف
##خدا
##وتوپ
گشاد
Network
##ube
لفظ
١٣٩
بنر
زیباست
۸۳۵
سمیر
##دانه
پیشرفتی
گفتنیست
خوارزم
فاکسکان
وش
کینه
۸۵۰
واج
انگیزشی
اسبق
all
##سیو
سرگردان
گرید
استایلوس
بدخ
مشغله
همدردی
مسوولیت
تزیینات
عاقلانه
دلتا
فناورانه
عزیزم
کلیساهای
رخدادهای
Bro
##گارد
فنر
روادید
گشن
مکزیکی
##ara
##esh
le
##پشت
##رکه
##بران
##وعلی
نمیخ
جداول
دعوای
خلف
##اریو
مجالس
ناا
متوفی
میدیم
نشاسته
پختن
##زین
سیام
غیرت
کارکردهای
اوکراینی
سرف
ناي
فرزندانش
##RO
بخرد
مختلط
have
قطارهای
جریانی
صلیبیون
بیافتد
##مش
دلچسب
##ینیان
۱۴۹
تقسیمات
دخترانه
اسکرول
۱۹۳۵
ایزو
کتان
##پری
Sport
ایرادی
قاجاریه
بطن
فهمد
تمسخر
داروین
ادوات
۱۳۶۸
یوگسلا
بگذرانید
اوهایو
خفه
یوک
۱۰۷
انداختند
پوچ
اعضاء
صمیمانه
##اژی
##بتان
ابطال
زیرنویس
اعلامی
جهانیان
##700
بازیک
سیگ
احساساتی
بشردوست
دخانیات
فکس
نيو
##ric
##ield
میدید
قلاب
امیزش
حلب
رنده
موصل
سراب
سانتا
گشایی
##اگ
کودکانه
۱۹۲۹
استفان
سینماها
##عهدی
دورافتاده
منزوی
##فکری
عموی
خیام
اسفناج
مصدوم
##رداری
موتورس
زیمباب
توجهات
۱۳۵۴
ادعایی
غفلت
اپرای
##راها
طورکلی
سفالی
دوستدار
موتورها
##VM
مرکبات
وفات
اسکوتر
سیمی
اوز
هیول
مایلی
یوونتوس
ازانجاکه
۱۴۴۰
توشیبا
کارمندی
کسل
کوچینگ
طرحهای
بواس
پاتریک
##راش
مصادی
۲۸۰
نافر
ازحد
تونست
se
استه
دزفول
گیشه
ایلی
تولیدشده
اشکانیان
نگاشت
سریلانکا
مناز
ابدی
##سلان
باختگان
خانوارهای
##دهای
میزنه
میشیم
۳۶۵
##کراسی
استونی
##میس
المثل
رالی
راسل
##کربن
شید
بازکردن
موردعلاقه
حیدری
درادامه
##الحه
معما
مجانی
اخلال
جلگه
انسجام
SQL
پساب
روانپزش
فولدر
##سپار
##اسبی
ارغ
رزیدنت
##امپور
M1
ایرباد
دمکراتیک
بنوشید
مپس
شهرضا
توانستید
Lab
بخوام
۱۱۷
میتونی
##یناوی
یابیم
زرق
جسورانه
اختراعات
استکهلم
protected
بهسازی
۱۰۶
انگیزترین
تکنیکال
بتنی
کلارک
جنایات
سامويل
##ايب
زرهی
زیمبابوه
##زمی
بهروز
ارتد
اسپم
لغزش
معتقدم
جیک
انتالیا
##دیو
##ملر
جدال
طوایف
Ac
دادی
استات
##لومی
کوکی
برگشتی
Global
دیکتاتوری
##ضوری
زیرک
ویترین
##گاوا
جادوگر
متضاد
دامپزش
بیک
کامرون
بمالید
44
##حر
مته
بازاریاب
میخو
RNA
##زیز
##مرکز
کشیدم
##انچه
معش
ترتیبی
Quick
Ti
اطرافش
همسایگی
39
##نتون
دیدگان
ري
١٩
ورشو
هوشی
کلاهک
ارسنال
برایت
کمری
کمینه
رادیاتور
##ource
##۳۶
SEO
اسکاندیناوی
##ons
حاتمی
##ورانی
فراکسیون
۲۱۰
نگذاشته
مفاه
سلبریتی
Dead
لایتنینگ
ارسطو
جوار
صحی
ضیا
ماهگی
پروس
درعراق
توح
عدسی
##nal
##ورس
۱۹۱۴
دربارە
وکلا
۱۹۲۱
شیرهای
##uck
Music
غیرحضوری
##TV
افتادند
خوشحالم
پرستاران
بتونید
سیلیکونی
حوضچه
مجامع
نزدیکتر
متعجب
انباشت
##موند
##ورشیدی
ماینر
تشییع
Bit
۱۵۷
استیکر
ناکارامد
قنده
ریشتر
گازويیل
مدارکی
##ification
یازدهمین
دستتان
نسخ
ابرسانی
میخواهیم
##یزیک
بزنه
میرسه
نزاع
Over
XL
۲۰۶
##ouse
ثروتمندان
احترامی
تظاهرکن
هارت
۱۹۳۴
911
فاصل
##جای
میزند
۲۶۰
غوطه
وجد
عمه
##اکری
8K
نون
گفتگویی
درجات
نگین
بازرس
پرخطر
تاکسیرانی
تجمیع
منهتن
قرقیزستان
رانت
ابنبات
نپذیرفت
مدفون
دوستانم
هنرمندانی
برنارد
گلیک
##mer
ریزه
اعتبارسنجی
قحطی
So
شفق
طرد
عنایت
بارهای
بگید
سردرگم
HS
داب
##کوب
##يود
مبنا
اجراست
۱۱۲
دماهای
لااقل
سيوال
بیابند
ژی
##less
براحتی
حملاتی
Har
درپی
اسلات
راهکارها
عواطف
طیب
ماخ
شهرام
ضامن
لادن
گات
دراید
مدیری
ارب
Li
ابهای
نمیاد
پارگی
کلیدها
Add
کاتالیز
زراعی
بازیکنی
جار
ساپ
##رینگ
نصیر
بالارده
بیگان
ستود
سرکار
رحیمی
my
عدس
مذاهب
اونجایی
دایملر
تاندرب
سوکت
##رانگ
مارپیچ
ببرم
##پلر
##منس
برخوردهای
دستورهای
همسران
گالوانی
تورنمنت
Honor
شوری
افلاط
بناها
بنتلی
صدراع
مبارکه
شاخصه
Blue
مصادیق
جلالی
جیوه
سیمون
High
خودپرداز
فردای
ویرانه
مسافرانی
حماسه
یوگسلاوی
##الامپور
برهان
الجزیره
Kir
time
زحل
پریز
اوریو
۱۳۶۹
رامسر
استثنای
Cy
##اعی
خرابه
جزوه
پاساژ
کیلومتربر
ماندنی
۱۳۵۳
پناهندگی
فرزندانشان
اریایی
تفرج
Pass
فارن
۱۵۸
گشتند
اسلواکی
متروکه
Pe
انتقالات
باغات
بجن
میبینید
##ابا
اعزامی
بلوری
کنسل
سخته
##پروری
باهاشون
مجرمانه
دد
اوستا
کتک
گذرانند
Code
##جینی
##cept
بپذیرید
معشوق
راجب
##وزین
##يیسی
خورید
سیاستی
##ures
Java
Viv
inter
کوزه
##17
۱۲۲
تاندربولت
حوز
##گرید
نمیکند
##زونی
##ates
اسپایدر
کیلوگرمی
متحدانش
سمینار
بواسطه
لال
##نایت
##PI
اینت
امب
منتها
دودی
##ونیوم
##طیر
##ger
میبر
بازدارنده
کوالالامپور
الاسکا
Big
بویی
بنیامین
خوابیده
عجایب
مینا
بدیع
رخنه
دریانوردی
مسيولیتی
تنزل
صورتش
خطور
بسترهای
##Pro
اهلی
##ould
Z5
امینی
اوات
نامع
لاپ
##اژه
استرا
افتادگی
جنبشی
میگرن
بستان
بشکند
ابگرم
##iver
تالش
نگفته
مخابره
وکاری
##ندری
قرضه
انجیر
حوثی
وجهی
۱۳۵۲
اموجی
php
ناتمام
هکرهای
اوراکل
##میرد
شوشتر
2021
لغز
old
سایبر
تحتانی
مونته
انفولانزا
رگه
میس
اسپات
خودمو
##ute
عناصری
Photos
##ورای
شروط
تایرهای
##یدرضا
۱۳۷۳
تدارکات
رایتل
ادوار
تنک
##لوپ
اخوان
تکنولوژیک
پدران
##irst
##ify
مفاهیمی
۱۰۳
علیا
۸۴۵
متفرقه
کیلومتربرساعت
Mess
##AA
دوغ
قرارگاه
سیستماتیک
گزارشگر
بسپار
شعارهای
ندادند
۰۰
##وقه
کلیات
۱۱۹
صبحگاهی
رحمی
ترجیحا
تاثیرگذارترین
تپسی
دمکراسی
دمنوش
خیل
رژه
پانک
کالیفرنی
امانويل
داگلاس
اسماعیلی
Win
پیز
##elf
زیرساختی
ترشحات
جاوااس
طریقی
Kn
Xbox
ساطع
میاند
نیوج
لینکلن
##جینال
یونیورسال
##OT
تردیدی
فلوید
برکه
##ویژن
لوپ
اسپید
بخواهم
همتایان
##تراب
اسرع
نیزه
دریاها
##انتز
کارگردانان
برگردید
John
اوايل
باربری
تصویرسازی
بایگانی
ابوالف
زب
دورن
الگوریتمی
استعمال
براوردهای
رجایی
##اهام
اتک
##led
پریود
معدودی
CT
لمین
برکلی
رانش
گذاشتیم
مسوول
Dx
##to
براز
اقصی
کوفه
علما
خدشه
لیند
##شکن
الکسی
اسکل
توسل
مدتها
۱۵۶
##ello
سرگيی
دیگرش
کوبی
۱۳۵۵
بیاندازد
بپذیریم
COVID
هپاتیت
Vis
بیومتریک
سیاتل
فایلی
مسموم
خویشاوند
##کود
ازن
مانتین
##ents
پانل
فیشینگ
نیوجرسی
##هایشان
تایزن
فرهادی
خوشنویسی
Cal
سینگ
##RP
##ةال
۲۰۳۰
متوسل
میکرون
اخری
اسپرس
سانفران
قندهار
3000
لوم
اسنادی
همسرم
مناقصه
میهمانان
Fil
M8
##پتو
##فترین
##طنط
مچی
##خالی
انوش
اندو
خراسانی
کروبی
متقارن
فرسودگی
B2
##مندانه
قسطنط
##وسیت
۱۳۳۲
##OL
##یدیم
۱۵۹
##حدودی
کاریکاتور
##کتی
##ضوی
##واژه
رهسپار
استوارت
Med
MSI
چرک
##يول
امدم
##اپست
اکسسوری
Z3
۰۴
۴۸۰
میگرد
شدگی
اوه
##یاطی
نفیس
وارث
عوارضی
مضامین
رال
میشناس
اروگويه
زادگاهش
##مک
الکی
نواق
۱۳۳۰
##son
##de
معظم
عرضی
خانمان
ماینینگ
کاریز
انتظارش
نها
##que
نظرتون
چهارراه
۱۳۴۷
##ضیه
نیوم
رقب
وظای
عزیمت
اشکارا
عقلانی
دیکتاتور
##cul
ترام
دخترک
قیچی
بولتون
فردین
##سیسکو
فرکانسی
ترفندهای
فلیپ
متبوع
پابرجا
۳۳۰
هاوس
جوک
صافی
وانی
تیمهای
سویه
۱۳۷۲
مسیریاب
بوه
لاه
##33
محال
مصالحه
نهال
عبوری
۱۹۳۲
پرفور
مارکوس
وهوایی
گلوبال
Lin
M5
we
قولی
##RS
##برای
##سالار
##برده
نفوس
فیلترها
مادام
گفتاری
روشنفکران
الکترونی
میکروفن
ریاضیدان
##ثقیل
اینحال
بلژیکی
نشستم
Run
ثانوی
دانیل
رمزارزها
گلپایگان
ضمیر
##ris
۱۶۴
##idge
پروستات
بشردوستانه
شلاق
فرع
شاملو
فوتبالیست
وخامت
قشقایی
ابهامات
ابجکت
زننده
شکارچیان
قسطنطنیه
##word
##ستمی
کندتر
ولیکن
استانداردی
۱۳۶۶
HMD
EOS
جود
هوگو
##atic
متعاقب
##urn
توانمندسازی
نگرد
چکش
مهتاب
تونن
کچ
##حمد
Sky
تراژدی
جسی
سررس
شوخ
حمیدرضا
درمقابل
نطنز
حصر
موکل
علیزاده
##لینک
۱۳۴۹
بچگی
##dragon
بازخوانی
عماد
پوشاندن
مغایر
وسايل
##وفیه
امیرحسین
##unction
جرثقیل
صهیونیستی
غیرمتمرکز
##منظور
لاهیجان
ذین
دستکم
کلن
انتقادهای
هیدرولی
بکنه
شنیداری
##اشان
##باقر
درت
ساوه
اجزاء
کارگزاران
شفا
طویل
وراث
##aj
ابوب
لیو
##br
یادش
نگاهش
تبلیغی
برجستگی
عزیزی
ضمنی
ملاحظات
جلی
طغیان
##OD
##MC
همشهری
امیل
بوداپست
##کسید
زیسته
عطسه
##شارژ
هنگفت
مونترال
SL
سوسک
غارهای
چندم
رودستر
اکوست
جیغ
بافتی
FCC
##روفی
##فرض
##وناگا
کنسرو
ev
##ونین
اسپن
۱۳۷۴
کوشد
پنی
##ler
بیای
کشورشان
هرچیز
زید
بهمون
معاش
بلوز
پلیسی
باورها
فورتنایت
##ورتر
امیلی
سرتی
راهبری
اصلاحی
دینامیکی
نیکو
۱۳۵۱
42
۸۱۰
##ملین
##enn
بپرد
لنف
Min
ريیسی
دلمه
گذشتن
بپیوندد
##وگرافیک
Lake
بینگ
ادمها
دوپامین
##تز
##کرده
نبوغ
##وردها
##ولیزا
سولفات
برداریم
ژنی
نمیکنه
زبانهای
تورها
صدراعظم
Cap
قرا
پاری
##اجر
تصمیماتی
۱۹۳۱
رولینگ
بمنظور
ارتفاعی
مخاطره
۱۷۴
F1
طالبی
کارتر
شکنی
نابینا
مافی
##ازاده
فیلمسازی
Snapdragon
SC
##date
عزل
۱۳۴۲
کاتالیست
خا
##لوت
##وتایپ
سويیفت
Amaz
شراکت
گیتی
میپرداز
تاخت
فروغ
خوردم
شادابی
بشی
گمن
اطاعت
هرتزی
Camera
جانداران
دنج
شریان
##زاید
##روع
کارساز
ارایی
رویی
مستقلی
بستند
##eter
تونین
۱۳۴۸
جنیفر
BMW
##حدی
تعدد
میبینیم
رسوبات
وگذار
##شنی
##Fi
##64
##بیک
عمری
بالکن
##ايقه
ویم
##ووس
##MP
میفه
کرات
نوازش
انزوا
پاورپوینت
##دنی
##rive
##رساز
رسانا
میتونن
##raph
Tim
##ring
اتاب
تحریف
شاهرخ
ایندکس
۸۵۵
فروت
تشابه
##نتال
Amer
##II
##اتن
کارازم
مجریان
راهداری
حسگرها
میخوایم
PCIe
سلیم
سازید
ادیت
##ano
##گرفتگی
باقری
تحریریه
ماوراء
Business
##چینی
دیگو
جاناتان
مگس
براثر
جورجیا
زیارتگاه
گسسته
ذینفع
File
نولان
##ایک
اجتماعات
بادز
دماغه
جاوااسکریپت
ضدا
اشا
نواب
اهتمام
سنگر
ایزوتوپ
پیداک
ارگانیسم
dis
وع
##75
خریدی
اعتدال
معتمد
بازگشتند
روستاییان
نانومتر
اندیشیده
P9
S20
استروژن
دوبی
۱۳۶۲
صیانت
کایرین
رختخواب
Rade
رامین
##اندرت
دلتان
##ross
اکسپرس
دعوتنامه
الگوها
microSD
قامت
##یروس
سودا
##ize
کنستانتین
سامی
گابری
بکاهد
جسارت
همجوار
یقینا
غشای
میرد
##ویلی
المال
تطبیقی
نشنیده
بهزاد
برخاسته
متغیرها
جویا
روانشناسان
UV
ترید
ادمین
مارکو
مادرزادی
حسینیه
دالان
Radeon
Del
موهایتان
سانفرانسیسکو
back
بهبه
##برگر
شوکه
عکسبرداری
کریستالی
ترانسفر
معروفترین
واکر
##vices
کنایه
نسلی
##itor
اراسته
۱۹۲۲
اقتصاددانان
ابوبکر
مورت
قالیباف
ابله
نزدیکترین
۱۱۱
گرانب
جولیا
شکوفا
##کات
دوبل
مهاباد
سریعی
Dyn
Map
قال
##توس
##mi
##کرون
ناجا
بهبودیافته
استنلی
۱۹۲۴
اشمیت
هنرمندی
۱۶۸
مقصدی
تشیع
وگوی
##نها
کلاد
میزانی
##pert
Tom
تشنه
##ادف
اشرافی
تجسمی
گلابی
ناگوار
نياندرت
کامبوج
Log
Mini
##Tu
مراحلی
غیرو
کلاچ
لایکا
Anal
کیمیا
ht
درض
برخط
محمدباقر
لطفی
بویایی
محراب
قاطعیت
مزاج
##اتیکان
نیلوفر
طهم
##ژیون
##ايیان
نیوزلند
فیشر
TD
بمبی
##ird
برگردان
موقتا
اریکسون
پهناور
ایستادگی
۱۳۷۱
Develop
بشناسیم
##پنجشنبه
فلاس
۶s
##وشیمی
فرای
رویان
رزل
مرورگرها
Digital
هایت
اوگ
نقاشان
مراغه
سیلور
دراماتیک
نگذارید
Mult
##سیتی
دانگ
بپره
دعاوی
S3
بولت
##13
تعج
هشدارهای
خرابکاری
##ror
بازافرینی
نواری
سازمانهای
سخنی
یونانیان
ارضی
ماکار
زیپ
##وسک
راهش
##ends
دمی
##Cloud
##aus
##صال
موثق
عنصری
کامیک
وقتش
پرسند
وظایفی
net
طلس
##افته
پروین
خوشبین
تکنسین
کاندولیزا
##سگی
مستمری
Health
سباستین
میرو
ترسی
ناممکن
گوشزد
##ربچه
نورانی
میخورد
چکیده
بدبختی
88
out
میرح
اوره
کلوپ
##ثیه
##نتز
مکث
طیفی
روندهای
۱۹۲۸
Manager
End
گنو
فعالانه
۱۵۴
شهرکرد
میخواستم
منتظری
دیود
##یستا
راههای
افریده
حمزه
اسپران
پوکی
ابوالفضل
qu
ماکسیم
ذايقه
تابوت
پارکینسون
یخبندان
##ther
##anced
جاستین
کاراته
۱۱۶
پهپادهای
per
##یلن
بذارید
دایرکتوری
گوردون
نمان
میانمار
پاسگاه
Adobe
عناوینی
گنبدی
حاصله
٢٠٠
##هه
قرانی
اتوموبیل
org
درضمن
##پلی
##ازنی
بپزید
فرهنگیان
نياندرتال
۱۹۲۵
CRM
ابرقهرمان
بفروشند
##حم
امارت
دیکشن
گذرا
##وهانس
سیگاری
کیوتو
مشاورین
۱۹۱۲
انستیت
ذاتا
##ke
درازی
فیلاد
سپیده
فشن
نماهای
برندهایی
سالهاست
##afe
اتلانتیک
دیکشنری
##وستر
مبتکر
خاموشی
۱۳۴۶
جاسازی
News
لژیون
واتیکان
سرسام
##افر
بزنی
محصولاتشان
پرسشی
خمیدگی
سمبل
۳۵۰۰
۱۳۶۵
جنسیس
غیرن
اونقدر
مواظ
JP
غلت
##امز
دنیس
بفروشید
one
##der
مردها
Batt
سوف
نخاعی
کتابفروشی
##FT
کاراموز
بدهکار
۱۹۱۵
یايسگی
سررسید
هایپ
کمین
شخصه
سلولهای
بالادستی
##ادیان
هیج
خبرنامه
انسانیت
ظرفیتی
Studio
##دارد
نمودارهای
باریکی
۶۰۰۰
جادوی
طاهری
##uro
معیاری
حداقلی
مثنوی
ارزشش
مشروعیت
تکواندو
DR
افی
خواهران
افزایی
مادورو
Life
بوریس
دیک
وقتا
کاتلین
لزومی
۱۹۲۷
Park
پوک
##ساری
##14
##لاو
فوتبالی
اذهان
##avel
هاوکینگ
##فایی
##ms
##اپیش
فرانکلین
بازداشتگاه
عبدالعزیز
ودا
##ادان
تعریق
قطری
##ency
بهاء
پیشفرض
نوکلي
##rypt
اینفین
تبه
میساز
فروم
زیرشاخه
فشارخون
رستورانی
گاما
دهیاری
الحس
معصومه
فج
##کوبی
اناتومی
لجستیک
Acc
ET
iM
##ایعی
##ختگی
##بودن
سخنگو
افشاگری
##پوستان
Group
DJ
ind
نشتی
##EM
روانشناختی
HTTP
i3
توسع
##کتون
ایجادشده
##reak
بحثی
قلبم
گرن
۱۳۶۴
جملاتی
Sony
##وزر
عسلویه
کاروانسرای
پرانرژی
Cat
DNS
##یلس
ویدیوهایی
ناکافی
فرازمینی
روزپنجشنبه
یادمه
صغیر
چوپ
##AL
رومان
یافتگان
مسافرین
She
Soc
Soft
مصی
۱۰۱
سیرجان
بفرمایید
سیامک
if
##PN
پرسه
صفرا
Last
##پسی
کردین
ایزوله
پاستور
پوینت
دربند
##راط
پردر
نورث
میلیاردی
پیستون
تعزیرات
پنگوين
صل
##۲۲
یادتون
رفتارهایی
سانان
چرخان
وجهه
##ific
۱۹۲۳
۱۹۲۶
Work
رغ
کادی
انلاک
ارتی
دلالت
IDC
بلندپرواز
Find
کرملین
##ott
جاها
##الود
##دمن
##سرخ
صحرایی
جمعا
المقدس
256
بفهمد
پویانمایی
##لوم
##ینیو
کانکس
امریکن
انصار
##ونن
همدی
صدایش
شباهتی
الکترولیت
فراخورشیدی
IG
افغانی
هراز
اقساطی
DV
Mem
Night
سست
##تش
ایب
فرسا
پیشخوان
گیران
ذکرشده
ناخوشایندی
بچین
تتر
##مور
بدوی
یورویی
Prem
فاینال
Word
شیلد
اندرسون
نامبرده
##uty
خاتم
چشمانش
جاودان
فندق
G4
ظن
کادو
گلاس
##تام
رقبایی
نفخ
فتوک
معصوم
شنگ
وبه
نقاب
سیاستهای
کبری
درباری
انژ
همسری
##یلو
شبستان
کرید
پروتستان
گریس
سوزنی
نوبوناگا
قلیایی
جونیور
صرع
پیشاپیش
ماهنامه
Ins
ايتلافی
زینتی
##جمان
گالوانیزه
Media
web
##خم
ایش
##وکاست
مکش
اتوبوسرانی
Control
حمد
Drive
معالجه
۰۹
##شات
##پرایز
یکتا
سالمند
کرمی
۱۶۶
تحریمها
M9
##load
##چنگ
داشتی
فارنهایت
هایلایت
انگشتر
برگردانده
استنباط
بپرهیز
##بوری
##روال
ارون
فقید
درخور
زدنی
رکوردی
۱۳۶۱
دروغین
نعنا
##زادگان
زیربنایی
کاکايو
Security
data
##View
ازبین
لوای
سراش
موجبات
True
ارایشگاه
Nov
۱۴۷
موانعی
صادرکنندگان
گشنیز
تظاهرکنندگان
کوس
##خورده
اوازه
ادیسون
سامورایی
des
شپ
##خس
ساواک
##قیقت
۱۶۹
Screen
مافوق
Nav
##اهوی
تمرک
نظرهای
شهربازی
قیمتهای
دایمی
بیزنس
فاطمی
##محمد
فداکاری
##ple
Priv
فیلادلف
کاسی
اکبری
##بولانس
طالقانی
Class
چنگیز
بیچاره
سفته
##ترن
نمایه
کارکردن
۱۳۴۵
##ral
##get
دوقل
دهها
متراژ
##پاژ
سیمین
##جویانه
لایسنس
رادیواک
تزیینی
صفویان
عهدنامه
##طین
##قاتی
##55
کشفی
سواره
اموزد
جهانگیری
نگهبانی
پرمصرف
تریم
هیک
میلیاردر
تپش
تیس
زيوس
مودی
کیار
برثانیه
منتظره
توصیفی
##خواهانه
لانچ
المپیاد
۰۵
##میوه
##orn
قانونگذاران
شاعری
##ایقی
روزا
گیگا
نابسام
بشناسد
بپذیرند
هلیوم
Elect
ساکس
##خیری
میو
اسدی
فرامین
ادیشن
##بانو
منتفی
Ang
##ویگ
هیولا
تیموری
پولشویی
اژدهای
بخارا
بنشینند
فیدیب
لمینت
یوری
##رن
مقامی
سیکلت
اولمرت
MX
نرده
شبکیه
خانوم
قالبی
بابی
اواره
مسب
##متان
باربار
میداند
گوسف
طبعا
معیارها
خویشتن
G7
سونا
##تینو
ابرهای
هالیوودی
لاي
##وشت
کلاغ
سونامی
##angu
شکس
چاد
##امور
ایستا
کاستن
فیلادلفیا
۰۳
نخبه
طرفداری
مالاریا
دراوردند
نتیج
end
زابل
کریک
منتش
چهارچرخ
عشایری
ناامنی
##ترابوک
Us
بنج
غصه
واه
##اریست
##شمار
پارکر
محبوبی
کریمه
نوزادی
مینویسم
پاز
##اترا
##یمان
امینو
سالمی
برگزین
مدرنیته
Start
##وپلا
واضحی
شرکا
نبی
##lication
نامز
بلات
ییلاقی
Server
پدی
دیبا
گستر
##تونین
بازاریابان
فرارس
اوارگان
Sim
##گاران
اسپلیت
غیرنظامیان
قمی
گج
##اوت
میگرفت
اسدالله
۲۰۷
##لبانی
نورهای
خردشده
Fran
فتل
##ze
##اسان
ابرک
جهانگیر
۱۴۸
۹۹۹
چکار
کندن
یادت
لایف
دستیارهای
##اکتوس
هیلاری
سزارین
Pal
۱۱۳
مگا
بادگیر
الهیات
نواقص
کیر
القای
گراهام
بلندگوهای
##ruct
log
خودسر
تاپی
نوادا
کاهد
##acy
موناکو
ادامس
مغولستان
مستطیلی
900
M3
فامی
قات
##ایرت
مقن
بدبین
تلافی
##سلطان
بنویسند
##ffect
ریکاوری
مومیایی
##حور
##یزان
التی
تعرض
بلخ
تقو
شکاری
رنگدانه
لوسی
نادرستی
قیافه
انبارها
Kirin
پریدن
ناعادل
کارتن
oldid
new
لکن
بیام
ارسلان
شمرد
اموزگار
عقربه
کیوب
گیاهانی
لوتوس
EMUI
یوهان
نطق
University
Part
نن
خطایی
مستاجر
گشتن
AN
##تقی
##چنین
میزار
موجوداتی
##round
فرستادند
گاراژ
Hi
یتیم
ازدی
ترون
##ora
خوریم
رمزی
##اتلندی
فاي
کویری
بزرگش
##any
خدمتی
##فعل
Sil
pre
صمیمیت
##OMark
استپ
ارتشی
روحانیت
اسکاتلندی
ناصری
الیاژهای
انفلوانزای
غنا
رافا
الون
##کتوری
میزنم
کلیدواژه
گذارده
##ocal
معاویه
International
will
طاع
##ومان
##oT
##اکولا
کوفته
بالانس
##ster
مضط
لبخندی
##ustom
##زمان
##ربا
موجه
اکیلس
مولر
بدافزارها
جلف
بروش
اجمالی
پررنگی
برخوردی
خلبانان
ليوناردو
اینسایدر
43
داکر
استب
دستگاههای
چهارصد
MIUI
اکوستیک
180
رودی
##يوم
ارمانی
جدیدتری
##اکان
کارتونی
ناعادلانه
##روان
هوشمندسازی
کدامیک
۲۲۵
جمهوریخواهان
حاضران
واره
پتو
سرشان
نمیکرد
همینجا
ریج
گازها
انگشتی
##ations
Dark
سمر
##موت
##ios
اغازگر
##ars
رزلوشن
G6
حسنی
تقدم
عملگر
اسپویل
عالیه
اندازیم
DDR4
FBI
##سکه
کهکی
طراوت
مترادف
کارهایش
جداره
۱۹۱۰
##rist
ابلاغیه
کانتینر
اسفندیار
Fit
غزن
١٠
گسیل
##OP
تاشوی
نهان
مغایرت
خوشش
پالایشی
واتسون
متدهای
##چهارشنبه
اریان
وکی
بریک
هرجا
پرانتز
اخوند
درمانگاه
##کشور
##گوشی
مقعد
اثربخش
یونیکس
مامون
اسفنجی
bu
##دوم
انگونه
##لسل
درامدند
حواله
بتهوون
شکسپیر
روزسه
ادولف
وکارتان
نامتعارف
خاتون
مژ
##عاملی
##net
میچ
مستوفی
بعلت
مارچ
فشارها
Battle
RGB
Sir
لاور
##اچی
الويه
سکوهای
##وشنبه
پرتال
خوداگاهی
مصیبت
مهری
سنسوری
تلاقی
پرکاربردترین
##قند
مبادی
درمجموع
سوزانده
بارکد
ترابایتی
دلسوز
فحش
کارانه
میدانید
پرسشنامه
طعمی
RF
نهر
##of
##yth
سیاستگذاری
اعتمادبه
اورکلاک
اسپنسر
##زاس
##جاست
بالکان
تمامیت
بیماریهای
مغولان
سيوی
یکمین
ادو
ورلد
گردنبند
تشعشعات
کیمی
##مربع
##یدو
سالروز
اوای
مرکل
رنگهای
محمدتقی
تاکتیکی
ببینی
نهادند
ژوز
##kt
روزد
زیره
##une
برگشتم
ماکت
معاونان
میدهیم
بهايیان
مصونیت
تنکابن
تروم
دامی
ذیر
پوم
اموری
تربت
مقوی
سلسیوس
جیبی
والن
هوافضا
غیرواقعی
get
۲۰۲۵
داینامیک
ناهموار
منیجر
صحیحی
##bit
نصرال
موسیقایی
ارزشیابی
##سپاری
مضطرب
54
Video
خیاطی
##لل
تصوری
بیندازند
Lite
Vive
هیده
ابمیوه
نظران
دلالان
پردازان
تریاک
تشویقی
بجنگ
۱۹۰۵
ارژانتینی
QR
۴۲۰
##bl
##بانان
بالابر
خشکشویی
ماموریتی
فراهانی
##over
##ضعف
تقطیر
شیرون
پتنتی
گیلانی
ساندرو
ناخالصی
Mer
بوتیک
##che
##چون
روایی
منفعل
##اساز
فروکش
##aint
همدانی
حن
##عر
##IG
همو
عمقی
تعارف
فضاها
##ader
Infin
۱۳۴۱
DxOMark
بیضایی
خطاها
رودبار
##گانیسم
##میلیارد
مکاتبات
خف
شوگون
نايل
کانکتور
سرداران
پورنو
ویله
طلسم
دامین
سونگ
درهر
##اسا
بیخی
پایلوت
حکام
سانتری
جراحت
اشاعه
روزدوشنبه
##چرز
مردن
##غییر
ایتونز
سارق
جانبازان
ذیربط
هستین
پیشران
متناظر
بزارید
انتگر
##ناپذیر
طوریکه
##خوانده
##گرانه
شنوید
مشتقات
##ene
ویژوال
مشروع
طاعون
تت
گریم
واقف
شیط
شیپور
لعنتی
val
خیابون
##زدایی
دانشجویانی
هیجانات
##اااا
نامزدها
##برا
توانبخشی
روزچهارشنبه
ملخ
۱۶۳
مریلند
جویانه
نیفتاده
نصیحت
Port
##yle
##gh
لاکت
مقدور
زیربنای
فدا
##fr
مردمانی
گردنه
##ولوژیست
لاشه
لاگین
پیوستگی
همکلاسی
aut
##عصر
##غامی
موکت
معشو
کواد
بالاب
۱۶۷
فانتوم
بجنورد
هاین
سوسیس
شرت
میخايیل
inst
کارامدتر
اخترشناسان
نردبان
افلاطون
IV
هلا
وون
ماهشهر
هوشمندش
والا
عطفی
لیسبون
استارتر
هشی
پوپ
##pr
##oop
گریخته
رامس
میاید
برسی
بریدن
برایند
متصد
##وسکی
##ادرت
ماراد
سناریوهای
مقدونیه
Fre
کلرید
Expl
مقتدر
کاردانی
رفسنجان
Ke
بمون
چایی
مشبک
سازیم
چندبار
مستضعف
اموختگان
Chrome
ناسیونال
47
تیکه
فلاح
مینه
خبرساز
##وایان
حیواناتی
##زایید
حالش
فروید
کلون
##ope
دبستانی
کشک
حسام
مارگارت
فرانت
##reat
##els
حریری
شاداب
ناچیزی
دقتی
متانول
جگر
ساد
بسوز
خواندنی
بیگانگان
نصرالله
##ولس
کارمان
چیزا
##رزاده
ردبول
##ugh
واعظی
تاد
مبین
استاپ
##ردار
سلایق
وایو
رجال
دبلی
فنگ
کارول
##یشون
خرند
گیف
کامران
##olt
بیستون
لایق
رکوردز
Arch
اینفینیتی
Hal
گای
دانستیم
مقصدهای
درنظرگرفتن
شریفی
گابریل
همدیگه
غنیم
وایل
توانا
##ities
روشنفکر
درختچه
یواس
لاکچری
هولوکاست
ظال
برلی
##رکرب
معدل
سابقا
نگهبانان
کبابی
انضباطی
IN
دریم
میریم
##روبی
مایر
تخمیر
##يوف
##raft
میبینم
تنباکو
خلبانی
متیو
##اغ
##نفره
خریدم
سروتونین
##الته
عبدالحسین
##ocker
##duct
دامپزشکی
Next
S2
کاکتوس
##TI
هرانچه
کلاب
طورکه
میکردیم
پینک
Comput
انستیتوی
OK
UN
لیدی
##500
مردود
درمانگر
نبرده
2007
فیلسوفان
تجمعات
##اهت
گوشواره
پاسکال
نروید
وصله
IR
Sub
XP
دوطرفه
ارگو
مجته
گلن
تویی
دفتری
بازنشر
جفری
خاشق
راو
نشنال
تمبر
ورزی
مارو
##وفن
خلوص
فرات
مبادرت
پیچای
روبل
هاستل
۱۳۶۳
استبداد
##کریم
##یدین
کردهای
کشانده
ایرانشهر
فردوس
دعای
بفرستند
لقمه
Direct
##گلی
ارنج
قبلش
ارزانی
خطراتی
ضداب
هیدرولیک
کوشید
موافقتنامه
لوکزام
Sun
SAR
X1
دالبی
نری
گوا
##زارد
هنرمندانه
الشعاع
همگرایی
سرگرد
بازگردند
سرفصل
MA
غش
##66
کارو
فلانی
افسوس
زال
بیضه
متجا
دربیاور
بکشاند
work
چله
دولتمردان
بشکن
Dual
ناقل
دهانی
سایوز
شناختند
بخوانیم
استعدادی
ابخ
کوکو
سفارتخانه
لوکاس
درخشندگی
قارچی
Engine
لون
1500
##ender
کشمش
##unt
بالون
محبوس
کلافه
##ible
کاندیداهای
گردیم
فلکس
عقبی
گذارم
پناهجویان
ترمزهای
Market
تبريه
S21
##پتی
##کرفت
مشتریانش
مهاجرین
Connect
امونیا
امبولانس
##roll
گردیدند
بپرسیم
کاندوم
RAW
پردرامد
ملان
دامغان
موردنظرتان
ادامز
350
Test
فازی
نمادها
جنگید
ارامکو
باختند
بذارم
ردموند
##trl
##جاری
##FX
##ضو
##اریخ
کمدین
پرتوی
مارادونا
باهام
##reet
توافقات
پروتز
مراقبه
تختی
مانیتورهای
لیل
هانی
##ness
##ابلا
##نتس
ملایر
comm
رازهای
رباتی
مارشمالو
طریقه
هلیو
موید
وجودش
پوشید
متناقض
مایکروویو
Speed
اسکرام
باسابقه
ایلینوی
##جاب
متخل
مورداستفاده
فعالسازی
خطه
بازیکنانی
جريت
چرن
بارزترین
خودکفایی
داس
##قیقه
روزمر
قلع
##AND
TE
طوف
تحمیلی
گرفتاری
بیندیش
رولزرویس
Iran
##ریو
مدع
بخواد
خرچنگ
مستندی
ریگان
ویژگیهای
کیلومترمربع
##غلات
Ext
تفاهمنامه
قلیان
##بولی
##GI
##mm
##کنتر
سرهم
دلال
اختلاس
عبدی
دنیاگیری
۱۴۶
گوساله
بپوشانید
کازرون
تارن
طار
رادیوی
بادوام
ببخشند
سجاد
Center
میرحسین
EV
لگو
##یسک
نوح
##ape
۱۹۱۱
ابشارهای
سارس
صفا
##دیر
##ابین
درامدها
Deep
۱۳۳۷
سولفور
802
گردشگرانی
National
رسی
سکولار
نشینان
بخوابید
میاره
##گهام
امتیازهای
پوره
لنزها
داير
سوپرمن
قندی
##CP
##its
سریعترین
۱۵۳
تفرجگاه
معشوقه
بلام
##شوار
ارین
لیاقت
وانمود
وارونه
میباشند
۱۳۲۴
بجا
فرمانی
خانمی
چشمم
خوانش
شنیدیم
بروجردی
زبر
زینت
چسبان
برگر
فرهی
میکروار
هارون
Ret
مشای
##ومنین
شنای
فعالین
سامانی
##ames
بکشیم
اصلاحیه
سیسکو
رافايل
King
##300
##ابیش
چرخاندن
فیبرکرب
49
Pan
##Pad
بخریم
جلدی
کالسکه
ادرنو
720p
فرمودند
اسپانسر
74
Gold
براب
جستجوهای
برمیگرد
انقدرها
مباحثی
خودمختاری
باوری
راگ
پورتال
کمونیسم
EP
گوستا
ریفت
عاملان
##raw
مخلوطی
پروفیل
۱۹۰۸
الکاتل
نخورد
همکاریهای
بگذر
معلمی
تويیتی
اویو
تعجبی
i9
##vers
هیوست
گیب
نهی
پیکار
بنداز
البومی
پریسکو
ینی
##za
کارلو
ارثی
نشاند
ماههای
هنگامیکه
۱۱۰۰
ماتریکس
مشروطیت
کپلر
راج
نامسا
ولیعصر
کارکرده
فانکشن
چغندر
Search
##بنای
مولی
متاهل
تانز
الاج
دلسرد
سرتیپ
اووک
تنیده
تبحر
اشتوت
الگوب
۱۳۳۶
حلقوی
مسجدی
انتگرال
GR
رفق
فرج
بارسا
سوییس
شدیدترین
سوزاند
ناهید
مفرح
اشیانه
منگنز
ژله
##77
##۹۵
استانهای
کاراکترها
Grand
##فیگ
195
سرخرگ
۱۳۲۸
بشناسند
Duo
پرفورمنس
جولان
نبر
نزده
پیگرد
فیلمهای
مستغلات
چیلی
کاشف
بفهمند
کلرادو
مواظب
اینرو
هاید
بدرفت
##ena
تیرگی
ابریشمی
هاپکینز
##شال
##لیوس
افشین
جنوبگان
۱۷۰۰
ماژور
استعاره
Ter
X2
قومیت
۳۸۰
انط
اندری
نکردیم
فرعون
نگو
اکست
##یندل
چشمک
باختر
شاهکارهای
گمنام
مرفه
##مردی
##چا
استارک
##نگان
متمم
key
لولا
##یرگی
ادل
اولترابوک
ضرری
زیستن
بوکان
پیس
##فو
##طره
مدور
##وشیما
##وسترون
تایمر
محافظتی
فتوکپی
فامیلی
یوتا
##ولینی
پسا
کلونی
واردکننده
نبودیم
خروس
مجبورند
Arm
افشاگر
نمیتواند
نژادپرستی
City
درکی
بازان
##باخ
شیوا
حکمران
اکسیدانی
Quad
نزنید
عتیقه
سوله
پسرک
اقامه
سوگواری
سیاق
سپهر
پیشنهادها
تیبا
کیوان
مکانیزه
خداد
زردی
دردسرهای
امونیاک
##وث
انتر
##وشو
تریپ
بابایی
۹۹۰
میکروسکوپی
##ولات
اکون
اصلاحاتی
زنجانی
قزوینی
نامشروع
پرشور
الگوبرداری
Bas
GP
گینس
##سوز
##ومنت
ادکلن
وهوا
منشاء
فراخوانده
ببندد
ایثارگران
بیخیال
Fall
Jour
Master
بتل
##سبورگ
ازمایی
##عداد
پربار
هیاهوی
کوروت
عروسکی
نامحسوس
##formance
Technology
Rock
##راح
##کنولوژی
اشغالی
بگنجان
سبوس
##سلمین
خودشو
##شکافی
فقهی
M2
تایت
تاران
زو
##فنون
سرل
##ومو
##ادران
اعتنا
گیمرهای
بوکه
منحصرا
##گرافیک
تامپ
یر
##پروم
##ret
خلقت
خسروی
جلساتی
ویرانگر
html
##نوع
##حتاج
ایرپ
درایوهای
دوازدهمین
تفصیل
التو
صفحاتی
بگیرن
##aks
برمبنای
فیزیولوژی
گوانگ
Pa
تزار
##rit
##gin
##اپی
مخربی
اموزنده
شارژرهای
قرارداده
سفیدپوست
انگیزش
نانوایی
معنادار
ازدیاد
لوکزامبورگ
شکایتی
نداشتید
جنینی
ییلاق
فولیکول
سراشپز
ویلهلم
AW
Access
Sal
۳۹۹
درگرفت
ادین
گفتی
اکسون
میخواهند
کورتیز
##۲۸
##اشتند
فرما
مشاج
##اقان
سازندگی
دانستید
دعوی
الفبا
طوفانی
Fe
حقوقدان
مطمينم
##ody
نگارنده
##ople
فریدریش
اسکندریه
خجالتی
Assist
کادیلاک
Lib
گودر
رومن
محفل
۱۳۴۳
پروپیلن
جاودانه
ابرقهرمانی
گسی
##AI
باواری
دوه
گوتیک
اهکی
نیترات
4000
محضر
الغ
تبلتی
ولنت
##کلیف
لندرور
حجره
۱۳۳۹
دانشجوها
معترضین
Band
was
زرده
##Sh
##Hz
##نهام
اورجینال
##arm
##ese
یوفا
برانکو
جوه
##اسه
شکند
Inc
مضح
Down
Wire
فانی
هرا
ووک
ارتروز
تعادلی
کتابخوانی
بغض
لاستیکی
رجیستر
LPDDR
ثانیا
##ius
##فرانس
نصرت
بندند
گزاف
۱۳۲۹
Lum
mod
لابه
پاسی
##شتری
##سیه
مشم
##ited
چاپگر
النصر
نگذشته
زبون
##لور
روبین
کمابیش
قدیس
Fort
عدال
۰۸
##۲۳
بردگی
تيودور
چنانکه
باریکه
اینجور
دندانپزشک
لالیگا
##tual
##۴۸
اتنا
فروسرخ
بالستیک
لوور
مالکین
یزدگرد
Show
نايب
Sou
خادم
##اوا
دونده
##کارانه
##فیفی
سردبیری
بکشم
کارکردی
جبری
حیف
ریف
ليو
بخند
وجودم
##باغ
بردیم
بتونی
سیزدهمین
عدالتی
##حون
کارگاهی
افک
مريی
نصاب
پلکانی
۱۷۳
پروتوتایپ
##ural
پاناما
فرنچ
##منطقه
am
میومد
امامت
بیایم
##ival
مونو
ارزشمندترین
صدرنشین
باکیفیتی
توجیهی
ورایزن
بدرفتاری
Mir
ایفل
ایرس
شهره
شوره
میکرومتر
رحمانه
بفرد
ذینفعان
##گشا
##فروش
خورجینی
نرخی
سیروس
۴۵۰۰
Share
بتونن
پرینستون
##here
دندانه
روزمرگی
Xe
##سترانگ
مشورتی
قرارگرفتن
اونس
بلیزارد
##rix
بخوریم
Flip
باینری
بلندپروازانه
72
رایش
توکو
سالمون
مخد
اورم
اوراسیا
میرن
الحسنه
ظرفی
##سبی
##لون
ابریز
تنفر
پروبی
تجارتی
سیسیل
ابادانی
رحمان
نشینند
شاعرانه
پراست
جالبه
فوربز
H2
Hero
فواره
نلسون
##48
خودگردان
##رسیون
رویدادهایی
بریج
۳۴۰
ارجح
Mc
x86
نخی
وادی
بافر
##شنال
مایحتاج
##گزاران
DJI
##Ch
##Drive
##اندیش
میزن
شیرجه
لذتی
۱۳۲۵
رادیواکتیو
TR
##light
اینان
کندو
##جیو
کوهپایه
##قدری
۱۳۳۵
بالارفتن
ابرخودرو
##سیزی
مدول
جهانگردی
شوراها
مونرو
سفیران
بنامیم
کالبدشکافی
سواست
یورک
نشویم
ارتمیس
##ino
اورست
##رشناسی
سانگ
اشتباهاتی
ناامیدکننده
اسلوونی
Active
ed
نغ
هاوارد
قراری
##الیای
نواخته
##عملی
لوکا
چرچ
ایندیانا
Cur
##قولی
##مایند
مسلسل
نمیشد
اخرال
نمازی
سهامدار
Store
رکورددار
Hyper
فیدیبو
col
کرن
فرانسوا
سکونتگاه
زینب
##منطقی
NET
رکس
کتابخونه
سبزه
تراک
برادرزاده
کاپیت
بوتان
لنزی
درحقیقت
TCL
94
خبرد
قیف
شرکتش
##رویی
کاندیدا
چریکی
سوانح
A10
pe
##ینک
##فراز
عرشه
موسیق
زراعت
##فولی
نانوذ
میخواهم
زینک
ساتیا
Research
اسپرسو
کارازمایی
زاید
توکلی
روبر
پرح
کیلوب
جویدن
##جرایی
زیباسازی
پراو
طمع
عیل
قضای
##۲۷
همینه
نیچه
بارور
##زلزل
نیاکان
##aker
فیبرهای
شتم
بعمل
نیروگاهی
AL
درود
هاکی
الوار
ترفیع
مانويل
تیمز
تورمی
الکترونیکس
معتقدیم
ارمسترانگ
اونی
تود
حتا
چکسل
باسن
کرگ
حضار
اکتی
قسط
سلم
میدانند
##معارف
هلن
غنیمت
##عید
##لي
براند
روتور
رومات
دیف
##وشان
بزه
خواستگاری
حرمت
A53
مافیا
اسکورسیزی
ثور
قویت
##فوذ
دهخدا
اظهارنامه
۰۶
متاکری
شمیران
گلگیر
راین
مارون
تریبون
محمدحسن
الیوت
عبدالرحمن
رسته
سوشی
پریم
##yp
##یکت
بیشماری
قراردارد
دخترها
پمپاژ
Vision
##گامی
انگولا
غیرمنطقی
نورمن
اینفوگرافیک
دندانی
P20
مادرها
##جداره
اسفنج
۱۹۱۳
الومین
This
جانس
چنده
استنت
##لیوم
کوثر
مضاف
##ساران
##so
##۴۵
مربا
##اوره
حاضرند
پناهی
ترسند
حریفان
دلتنگی
سشوار
##ien
##ادین
##asy
##گینامه
گشتم
فیض
WiFi
Advanced
##600
##یتک
نامشان
ساوت
نیازتان
خطبه
سفلی
اثا
##itan
زدو
130
ROG
چیدن
##شور
##گت
برنی
مغان
وزیرامور
خاکسپاری
سانتافه
عابران
Hotel
##ریمی
دادسرای
کوج
بساط
نیاوران
Amazon
ژوزف
اووکادو
پوکو
##pm
دستباف
عبادی
گازپروم
النهر
دزدید
کثیری
ناکارامدی
متجاوز
5000
یواش
##خاط
##ظار
استاتیک
بخونم
بزاق
ندای
رودری
بدنشان
##وبیا
##idd
##aph
اریل
کاروانسرا
مقدونی
هیدرولیکی
چکسلواکی
ونگ
همتی
داود
کامیکس
نمایندگانی
رضایتمندی
Prime
Action
Er
اهو
چیزای
Stor
ادعاها
انیمیشنی
اتلانتا
نفهم
UHD
خندان
فلام
تمیزی
ریگ
پادتن
ترسید
##پرسکی
IDE
نامساعد
Mach
قریه
##23
لوپز
قانونگذاری
بریزد
نمیتونم
##Script
SSL
صوری
امفی
زیارتی
جایز
سنس
پذیرتر
مورو
حاکمیتی
درازا
سوپرشارژ
۱۸۹۰
Redmi
گذرواژه
GDDR
over
گاندی
یاسر
##back
##رسانه
کوچکتری
##پلکس
هایپرلوپ
٢٠١
Object
P40
بوف
افکاری
پنس
الیاژی
لارنس
PS4
بلورین
جاکارتا
NX
SH
صلو
میند
##سند
##عالی
##put
دوجداره
قرنیه
##مهدی
شرور
فارکس
۴۲۰۰
ترموست
فرضیات
X3
##لاشی
پرسون
زندگانی
اختتام
ابتکاری
کانفیگ
تلم
بابام
عبدالکریم
هرکاری
تانزانیا
اى
مکن
١٢
کک
##لاع
بلگراد
##فونیک
##ily
حوادثی
هالو
شاک
##ki
کارتری
فرشت
مره
##مونیک
کاربردها
خونس
۲۵۶۰
تیرانداز
بایستد
عباراتی
Surface
توحید
CL
حقی
##یدهای
##یزوفر
##مالا
دبیرستانی
کويری
۰۷
##oon
##ven
اتشین
نظرها
تشویش
نهار
مهراباد
تقاض
ریلمی
عاب
##پاش
##EI
مرع
##وتنیک
##ani
پذیرفتند
110
FI
نره
##vid
اسلا
بخرم
کلوب
غیرا
سایتتان
ارزوها
۱۳۴۴
##دف
نوپای
وایکینگ
پاپی
بنجامین
##TPS
اقایی
پرورد
شهرستانی
تجلی
کاریابی
اوردیم
##اخلاقی
##ayer
سانتیاگو
جرگه
اویشن
سوسیالیسم
##ublic
بمیر
پوت
اندرس
توران
وسطایی
لش
##زنان
##لایی
گزارشهای
تحریمهای
##ney
Dynam
چوپان
تاتی
غایب
فریت
گیس
##لاکس
داست
##نتا
ملات
شاخصی
خلقی
انحنای
ایزدی
Team
پوزیشن
کلیساها
خودسرانه
ظالمانه
Your
چیت
##28
قیمتش
حسابدار
خوانایی
۱۹۱۶
کارمندانی
نعناع
فضانوردی
شگرف
شگرفی
میکروارگانیسم
NBA
اژه
تیری
فدای
##ورند
جهتی
مدلهای
##سلم
کپنها
جهرم
استهلاک
سوتا
##RT
استک
##کلور
امیدوارکننده
فرستند
##earning
مشروبات
تشریفاتی
ازون
متذکر
عمدا
ابش
نویسه
##ايین
مثلثی
کیفر
دامپروری
دالاس
اهنگسازان
Om
بگی
کدر
دستاوردها
نوینی
دوستت
امدادر
ردیت
والپی
دیرین
کثیر
زنه
مگان
هلس
##برو
براه
دیاب
##ضرر
##ating
فراص
خوشایندی
جریانات
خواستن
نشستند
گنجه
۱۹۰۷
منحصرب
##formation
اسپرینت
دایناسور
عجب
سرگیری
رسه
تنقل
نیوا
تاییدی
تورو
IP68
الوق
پیشگویی
دانگل
##وتکنولوژی
##ورتون
سهیل
میکردن
هردوی
##culus
خاشقجی
بوسه
##org
هدفمندی
سرمایش
##وندم
ملای
##بورن
Dev
۱۹۰۳
باوجوداین
ادرنال
##لمی
##ky
##یروان
تاحدودی
چیپس
مراقبتی
سرخس
دودویی
انزوای
Shad
پرافت
IMX
گوم
گورک
متغییر
صنعتگران
پلکان
فینیکس
خدایا
راکتی
بلوتوثی
لشکری
لاراول
پروبیوتیک
Tool
جبل
هجر
هارا
کید
##گشت
بهاره
افرید
تلوزی
گیتاریست
خشنود
اورژانسی
Muse
Si
فیلمش
نانسی
off
درازای
##کزی
##ji
##اتس
رویاها
زندگینامه
میزهای
پارسا
تانکر
نوشتیم
باردی
سراغاز
بیاندازیم
یکنواختی
شعبان
ذهنمان
ماندگی
##oph
والدینش
فاکتورهایی
عرفات
Cons
لیبل
ماکارونی
دالی
بریتانیايی
##olution
اوستایی
اسرارامیز
##lete
بگذرانند
##ython
GS
Hello
##تیا
بازیا
اوکل
هرود
ورامین
اختصاری
##asc
محمودی
اعترافات
منهدم
چرنوبیل
Di
صم
ملیتی
پیرام
فایزر
بهارستان
مشاغلی
استعماری
go
نعم
یزید
اهنین
##فیوژ
نیکولا
خزندگان
ریمل
نیشکر
دارالفنون
اینچنینی
##Plus
هیوستون
57
باحال
مجنون
پابجی
ضدافت
جردن
دروی
براید
##سیک
بازوهای
نسرین
ستیز
بعض
هنرنمایی
تقریب
استخرهای
اصولگرایان
##ega
##rans
id
sub
تعهدی
والم
بخوره
بیاموزد
ابزیان
سروصدا
۴۳۰
##erb
پیمودن
میرزایی
پانوراما
والنسیا
##نژ
##برینگ
باروک
##ینیوم
##وکوک
سراغش
میرند
۲۹۹
لانکا
گوستاو
78
FDA
##oe
انهم
ترها
مادها
جایگاههای
فایروال
مینیاتوری
Science
ADSL
ناسازگاری
Post
##37
بلس
کریپتو
مامورین
قاطعانه
User
بیولوژیک
پیشوند
ممیزی
تیان
چنار
بپیوندند
Ctrl
te
ایدا
##اراتی
دهل
شکافی
مدارگرد
پورتو
برنام
Squ
مونه
مظاه
##In
##قط
##ستیم
تخطی
خداب
Reg
##Station
نترسید
DL
ارنا
اونت
۱۹۰۶
طوطی
۹۶۰
هاي
بخوبی
سایمون
میدونی
Tele
نوم
##خد
##ژان
شرع
رقابتها
یونیک
روانکا
ویديوهایی
خصومت
Dec
WH
##نیت
الاب
مرخص
احادی
اقتصادهای
2006
ایرپادز
غضروف
820
NP
بیعت
ضررهای
ایستد
مورفی
##علیق
##ights
بطوری
تازی
هانت
ژول
##طم
معمای
زبانان
رونویسی
چارتر
Express
گرندپری
ICT
Voice
وداع
##لاست
بازتر
##ارداری
نخجوان
بدونیم
مغل
1920
زردالو
تندرستی
Task
حواست
##ha
##ضلی
##غبار
دربردار
##ونش
توبه
هرسال
هزارتو
گلهای
##استر
شرلوک
۱۴۳
۱۳۳۸
زرشک
پشیمانی
برلیانس
MC
Nature
۴G
##na
##امپی
غیرعضو
ولنتاین
اختتامیه
CH
شافعی
کوا
##27
##انک
پراب
داوین
قبوض
تلاشهای
##رالد
مخالفین
هشداری
۱۳۳۴
۱۳۲۷
##ollow
مسبب
قری
انتوتو
مجیدی
گوات
پارال
اونایی
نواور
کلاود
دونفره
##ocus
Command
کوپتر
برشی
##بیننده
اخترشناسی
کانتر
کوبیده
ارنولد
لقاح
810
سارد
پانت
##ریکو
طیور
خطرپذیر
طاقچه
دوپینگ
تلق
##ودان
موث
کانتری
مدیوم
ماجرایی
مدیرعاملی
خانق
گلبرگ
احتکار
کاسپین
اندیشیدن
یوسفی
سارو
چندرسانه
شبح
ریپل
۱۲۸۰
قلمی
بانکها
متوازن
طالقان
رور
عت
ایلات
##رسازی
ردپای
JS
##zz
املاح
##فتر
تجرب
##یداسیون
##اشون
نصیری
مزیتی
سوبارو
SARS
Cou
mark
هانا
##لیز
گوپرو
##واران
مترجمان
نارس
هیدروکسی
Update
میهمانی
اکونومی
مخدوش
God
وث
##شاد
جدیدا
شهود
شکلاتی
تکانه
تراست
دستیاران
کولین
Nex
Sound
سایش
##NG
درشهر
##گرانی
##نیوم
تانگ
فوتوز
##ifi
تخمینی
فتنه
پش
##فار
##چوبی
عقید
برنزی
۲۰۲۴
پايولو
زیمنس
Model
فردیناند
والپیپر
S10
غنای
فوج
پایی
##۲۶
رونده
گردهم
##بالایی
باندهای
مطلوبیت
ایرلاینز
طهماسب
اسپرانتو
RC
خشای
##۲۹
درپوش
داراب
بیکر
ارور
اقرار
##نته
ضدالته
یونس
گمرکات
Force
مظفرالدین
کوزوو
تنگاتنگ
وانیل
Book
##عفی
##گوس
##یمون
الخصوص
##یبل
حلزون
##acing
فولکلور
برداشتم
مضرات
گچساران
تنگاتنگی
کارتریج
جادار
متلاشی
بدیل
کوپن
خوابم
تعمیرگاه
غلطی
مداخلات
چابکی
نوترون
Card
NG
وچ
کابر
##سنج
یکهزار
تراشی
میخوره
تحصیلاتش
الرژیک
بخوایم
53
Ele
حقه
دایان
کلاف
رودهای
زاغری
مریوان
فاکتورها
تبادلات
نمیدانم
شجاعی
بسنجید
بالابردن
متاکریتیک
النهرین
ABS
زری
غدیر
گارت
##راپ
##ایدی
پربیننده
تبانی
همانجا
جدايی
گریزی
1200
۱۹۰۹
لفظی
غیرنفتی
ضدافتاب
system
##ایدو
نامهای
انجماد
نیفتد
بالتیک
بلایای
شاهزادگان
خردمند
مانیتورینگ
غواص
ربیع
Fast
وشوی
انباری
##اهمیت
گرون
سیالات
بکاپ
نازکی
الاجل
Node
VPN
more
کورد
پیان
سیستمهای
همراهش
طبس
ریحان
بیانجامد
206
ساختارها
سنتور
متوسطی
بختیار
پوکت
مفرط
التیام
داوینچی
پاتو
کژ
##هب
سرحال
##ather
تردمیل
بابلی
ناپایداری
پرنسس
داغی
هیولای
تجریش
نادرشاه
برشمرده
Oculus
Raz
خازنی
##900
##we
##اموس
فروغی
ولد
add
##anguage
Brow
Duty
زعم
شق
فطر
فهمیدیم
مادا
##be
##انیم
جنتی
داخلش
مالدیو
تعمیرکار
جیرفت
فرگشت
پیداکردن
Az
Vol
##اهنگی
توپی
مسری
گلوتن
اعتنایی
##گلوبین
مکعبی
##گیران
تخل
نکردید
میتوک
نمیتونه
##ATA
لنگه
مخروط
ویسکان
بپردازم
BP
Line
ناله
ازمیر
برتون
کوار
##واهد
ماراتن
خوشبو
جیلی
Think
زادگان
میگذارد
۵۳۰
۶۶۰
دربرد
میتر
کنترلرهای
تورین
ردگیری
احتیاطی
بیاموزند
بروکلی
کرف
الرح
بیوگرافی
مخل
##سالگی
سیناپ
سندیک
ارکید
Auth
باربارا
MBA
خشتی
صور
##باح
ازپیش
ادمای
ساینا
##ays
##orth
۳۷۰
الوقوع
ap
وشو
ژو
۴۹۹
##ولون
هرمان
انتفاعی
کورن
خزنده
احیاء
فیزیوتراپی
رقبایش
AV
HR
##پال
##Kit
بیگی
افات
تنسی
شهرتی
سوگیری
مرداب
بالمر
تدفین
نژادهای
مظلوم
هاردی
پاستا
بازتولید
##یزوفرنی
مغلطه
G3
IoT
ونتی
میشید
اناه
بدشان
فلای
گناهی
بیفزایید
فلاسفه
دونی
##لوس
درمع
دوگان
هرمی
اقلید
احسن
سنجاق
۱۹۰۱
پرمخاط
BI
علو
سالخورده
دستشان
##رایب
اینترفیس
نفوذی
مدعیان
پریشان
بایستید
۱۳۲۶
تفنگداران
اسکوير
مفتخر
ایربگ
کیارستمی
iF
لجن
گالی
##ault
##ka
##DB
##اریکا
##اشنا
اهنرب
##ateg
نقصی
۱۳۳۳
سپردند
GSM
MB
##رام
درق
##ریقی
ایان
اندیشمندان
کازان
۷۳۷
Ra
هکری
کاتی
##راء
##باشی
ورج
طبعی
بحال
تستوسترون
مجبورید
حرص
2005
نرسیدن
غاز
استال
دارهای
مهلک
##وکاری
Tre
شفیعی
مبر
##ورات
مدون
بردگان
اسنشال
میدونید
تشنگی
کشفیات
پرافتخار
ماق
تمدنی
شایدم
قاچاقچیان
ربودن
CP
Ice
Ma
MD
الیت
##يا
البال
متضرر
پرل
شکافت
طبیعتی
۱۲۱
رگبار
خوارزمی
اصالتا
گهواره
مساعدت
خوداگاه
نستعلیق
فریلنسری
بچینید
Je
Sync
غلاف
نابه
##ya
الترا
کانالی
متعال
وگوهای
عاشقی
کورتیزول
خبرداد
68
ac
##گود
مجار
شهابی
##جاعی
ویلچر
منقضی
خشایار
##کریت
بردی
متریک
رسوبی
##اطق
##گلر
بسوی
##nder
##ivity
Alt
Shift
ترازو
نعمتی
##گوت
کارای
نقلی
امکانپذیر
میگیریم
##pos
تافل
##onic
قویا
الجثه
۷۰۰۰
سانتریفیوژ
Wal
but
ومیر
گاس
دهن
ماشه
پیغم
ماها
##فاژ
##یتیو
مخاطرات
مظهر
۱۹۰۴
بازتابی
مهدوی
تیتراژ
Cross
##مدا
##پتون
##مايی
بینجامد
شاهن
جانش
تسنن
۲۹۰
ماجراجویانه
اعلانات
نانوذرات
##مس
##نع
استوک
پرید
کورس
##ession
عطش
چمران
عاجز
انوشیروان
لوایح
ag
دج
۹۸۰
##لمون
سوچی
تعلل
کسپرسکی
##مپاره
دودکش
ریختند
منشعب
SDK
یهودیت
##منظوره
توکوگاوا
پوزه
##زلی
کوپا
نخورید
پیکچرز
فرزاد
##ely
پلاتین
گریگ
اسانتر
پلاسم
سوزوکی
##انوژن
ایلنا
حتمی
ژیم
سرودن
اته
##اندرا
گلوت
تورنت
##ada
باغبانی
برگشتن
راهبردهای
Color
##ytics
ویراستار
لابرات
تفا
سرامد
فضاهایی
جنگیدن
سخنگویان
ویلای
روحیات
کوهنوردان
Charge
تارانتینو
ثمره
سگا
اسون
عمویش
نسوز
##وسفر
نوترین
بنف
بلایی
مایا
سودجو
کاتد
##اووس
ابلاغی
کلوین
تراشیده
شتا
##سابی
##حساب
میپرس
تاخیری
بیاره
سیخ
##osh
2003
کرکوک
Dav
۰۱
##کوت
توخالی
محاوره
مارا
ادمیز
برگرداندن
۲۰۲۳
الیه
ودی
باسو
معمایی
##وکین
ترکیباتی
خلخال
هاروی
##ences
EX
HBO
NAND
Text
وپر
کفر
##فوی
##اندرو
بهبودهایی
اینهمه
هرکول
Helio
Z2
اهری
نخواست
گیرندگان
عقلی
انتقاداتی
جاندار
بچسب
ازب
بیوه
##umber
تجربیاتی
راکد
نمیکنم
تیش
ثانی
خمپاره
دورکار
اعل
خوردنی
##omb
نفعان
قصاص
باردیگر
Geek
##یتس
##وریو
اسپوتنیک
دلخواهتان
تمرکزش
تنقلات
P30
عدیده
##گیم
سخاوت
برداشتی
نگرو
استادیار
ابراهام
FHD
S9
pH
هیرو
##صاد
بامی
افشاری
پسرم
نبشته
بمونه
بتس
ناامن
Block
وحشتناکی
PlayStation
وزیرامورخارجه
ترموستات
نگاهم
اترنت
Tor
صوفیه
ژاند
##li
##روشی
##روزی
##وسنتز
رضاخان
افشاگران
دوقطبی
سخنرانان
ماداگاس
TU
بث
تغیر
وتح
##وميو
انتون
انترو
##کسین
موسیقیدان
M4
May
et
use
نهايی
##یداشت
رات
##اسل
بیوشیمی
مهارتهای
برگردم
Apps
توییتری
Launch
##گرایانه
CMOS
چیلر
DB
Page
fil
تامی
##ham
مقامهای
پاشی
تخفیفات
نیکولاس
درخورتوجهی
مشاجره
ویسکانسین
MV
function
##عین
##الیم
خوای
##یستول
گزارشگران
تعدادشان
مارسی
پاکی
##غذایی
اتومبیلرانی
اتهاماتی
عطار
عباسیان
میگیم
دربردارنده
Top
صعب
##mo
##ورث
رویس
گلزن
فراگرفت
استانداردسازی
##نوشته
ریسمان
جراحات
##ument
مازراتی
HE
کذب
برشته
تعزیه
دبیری
سروصدای
بازیافتی
58
ازسر
ایینی
ترسم
اشتعال
بیتس
پینتر
نارنجک
اندوخته
Award
San
تارهای
##دشت
شروعی
شناسانه
رجبی
فراخواند
سرسختی
پدیای
فرارسیدن
ارگومان
Hor
لاهه
##ازد
الط
نشانده
ایديال
دیدنش
##والد
ممنونم
۳۱۰
۱۳۱۴
Bur
مالکی
##گذارند
ایزاک
پرخاشگری
زهی
لابد
فرجام
##رایانه
##کتریک
کسالت
##ايیک
##agram
امامان
##arth
set
فيود
##کوی
##gen
برسون
انور
ابوس
ابخیز
بالد
تفحص
روبروست
پسندیده
تراکتورسازی
Internet
فاحش
درمعرض
خودشی
موعود
نصفه
Track
برگزیدگان
سواستفاده
لیدر
##ذر
##چای
##ردد
سیستانی
دخترم
بادکن
کاسترو
project
۱۳۱۶
نافرجام
فرشتگان
امدادرسانی
پیرامونی
CF
Pack
Xia
##بریک
##يیدی
دهقانی
تمکن
ورزید
استعدادها
ریموند
مشتاقانه
ایديولوژیک
رباعی
Zero
rec
جودی
پپت
##TT
امرار
هاس
المنت
مشق
اتوپ
اغازی
بانکهای
190
##ینتاش
Blu
غارها
چشمانم
پسندید
ترانسفور
ماقبل
63
پشمی
املی
دانایی
فارابی
قادرید
خبرنگاری
یزدانی
معایبی
##قیمت
تاتنهام
سمیرم
شاهنشاه
X5
iCloud
غیرعامل
نگهدار
چرخند
##izon
##اگويه
طعنه
متیل
دورتموند
51
52
Her
##RNA
بلشوی
بگیرین
نتوانیم
جورایی
قصیده
مقتضی
دایناسورها
EQ
has
حرفش
جوانا
اختلالی
##غرل
دیماه
1398
القایی
S4
##ray
هرجایی
شهرزاد
ایجاب
##اینات
الیسون
سندرز
دوبعدی
درحدود
صمد
##اصب
نااشنا
عقرب
فدایی
سونیک
بالیستیک
##ways
خوانسار
بوعلی
دیفی
بیارم
دهک
کنندگانی
شیروان
135
وتو
گنجی
##واده
##ینگو
منوال
مجال
کراتین
انواعی
##جانب
طرفدارانش
سمفونیک
##المومنین
حبیبی
But
بپر
اسق
کرش
اذان
زاگرب
متولیان
نوستالژی
دوقلوی
لاف
بالن
ولرم
برگردانید
قیصر
روسپی
هافمن
اکرم
هجرت
Bi
##اسون
اعمالی
مانگا
کاربرها
##لیکا
پیرزن
کوشی
##پناه
##لاطین
SUV
EF
How
Will
##cle
##شنگی
##ican
پلوتو
بیستمین
گردوغبار
شالوده
اشعاری
کوجیما
هايیتی
no
اینورتر
دورسی
پرود
##امیان
کامارو
پیکاسو
اکسیداسیون
خفن
زاک
زگیل
##شام
##well
غیرمن
خودشناسی
##leep
حاصلخیز
state
West
فاخر
کاهو
کلیسایی
##توانی
۱۸۸۰
اسپیل
یونیت
دمو
تصورش
تظاهراتی
امانات
Dragon
عیوب
انالیتیکس
گرانبها
فاند
##ایایی
توبی
بازنمایی
ارابه
۱۳۱۰
انتقادها
عینا
متاسف
جراحان
دخل
علامتی
دراویش
پرخوری
CoV
نگیرند
تناوب
##la
##fig
دلق
گردونه
ناجی
رودر
برگزارکنندگان
بورن
خدمتکار
فرمانروایان
450
SA
حنا
##key
هویدا
##omi
ربایی
ژیمنا
ماداگاسکار
۴۱۰
اوازی
تنسور
احی
چاپخانه
۴۰۵
##ury
شیاطین
46
اتل
نخاع
رزمند
استحکامات
لودویگ
خصمانه
General
شیطنت
view
دستمز
نخواهم
درایورهای
قطارها
لتونی
لويیز
AB
هربرت
شنو
کرام
مذکر
خداست
گریپ
##attery
160
512
بوتو
ژيوپ
##OE
معذ
حدف
##نجار
پاراگويه
پنوم
سقراط
Street
معیارهایی
بوقلمون
ادید
##واتی
گراز
مسحور
بدنم
اختیارشان
Ast
Z1
خیمه
صامت
ژولی
گاد
##ule
##ستید
استوا
##السلطنه
##ریبی
دهانش
مخمل
شمارا
رزمایش
پرسونا
بکاه
کریگ
زمام
خانوارها
ترمودین
شلبی
اوگاندا
GIF
سفتی
مازی
امبر
##ازا
اوغ
متین
راهب
گروپ
منظمی
میشوید
فیلیمو
##ibo
اسایشگاه
موازین
لوییس
نابینایان
پورنوگرافی
احادیث
لابراتوار
خراج
گلا
##پند
میگی
##ولوس
اینترن
دستورها
خصوصیاتی
مونث
۶۴۰
Motion
تنبیهی
rep
عابد
قشنگی
کیتی
اپن
اطرافت
بالشت
خارک
ترکمان
تایگر
کاربردهایی
##سکری
##پوشان
Glass
معالج
نهاوند
پراوازه
بتسدا
اودا
##قارن
اسودگی
رسیدید
حرفهای
قانونگذار
##سترون
سابقش
مقادیری
۸۰۰۰
ماهیتابه
مقتول
عسگری
Audio
GL
Nik
سارک
قذ
##App
دوما
رتینا
لطافت
##quest
اعیان
کپنهاگ
##۳۳
ویسک
سوفی
شناسم
بکنی
الفار
چهاردهمین
ارتدکس
کالیفرنیای
تیزه
##ful
درجا
نامیم
##شملو
سردسیر
کلمب
140
عطا
سربلند
متصدی
مستضعفان
ادیداس
Bay
##وتای
رایجی
فراس
فرانتس
هندلینگ
مراتبی
ندیدم
خندیدن
قشون
۶۳۰
##۹۶
##ینکی
برک
دارها
پسربچه
سیطره
غیراخلاقی
فرزانه
لگد
بپرهیزید
77
مذاق
مارشملو
پیشنهاداتی
##ety
##ady
##aper
##ember
امیرالمومنین
حریر
استارلینک
باطن
ساقط
ISP
گرینلند
Swift
واف
##oS
تويین
مدخل
اعاده
شمول
اختلافی
مارپیچی
پیشنهادهایی
تسمیه
پالم
لیگا
جاذب
احتیاجی
بخورم
نودل
نپتون
59
Gh
جول
سلاطین
##یدرو
متورم
اعو
مراکزی
##inc
وبلا
لوتر
نگرانه
کورتکس
بنگال
اکل
کنان
سالان
گازسوز
پوستتان
افغانستانی
##ential
نوشهر
##ograph
کرکره
class
تیونر
Front
اعلانیه
توله
##لاش
هیو
پارکت
کانتی
تفکری
##ura
پیوندند
۱۳۲۳
گلیسیر
فهمند
یاسوج
اکیولس
Dell
Sign
تذ
خصی
عاد
##ایص
تبعه
مدلسازی
مینو
بیدگل
اسپیکرها
ایمیج
دراورند
لیکس
##انسانی
فقرا
سقز
ریسینگ
برگردند
سارقان
مامانم
بایننس
##خسرو
93
co
زایش
شیش
انک
تنور
تلاطم
اذین
درجهت
##ماتور
عزیزمان
نوسنگی
گنجشک
کلارکسون
برنگ
##اهر
کارکن
سیویک
##رخان
گازدار
OnePlus
Museum
کرفس
List
افته
لمان
لورن
##مصرف
##ازند
ابدار
محدودتر
ابررایانه
بسامد
اتهامی
Road
##روزه
داربست
نامرت
گلدمن
##وپاتی
پورتور
بخوانم
دستاوردی
۱۳۳۱
کینکت
واژگون
هیچکاک
V10
سرپایی
تحرکات
اقازاده
قبضه
تفوی
پیچید
صداگذاری
سورپرایز
تومورهای
کهنسال
فالوورهای
Autom
الکترومغناطیس
پروردگار
گارتنر
دیری
ییل
##RA
##ذل
##اتک
معار
مرسی
مردد
تقبیح
کرامت
##وقع
پسرها
۲۳۵
نیکوتین
گزاری
دربرمی
مکاتبه
نامعلومی
رامسفلد
##جوش
یکجانبه
متغ
ابا
جدیدشان
کلانی
قسمتهای
لینکی
##imate
##ump
HTTPS
start
خویشاوندان
عقیدتی
Bal
بهنام
ابوع
اقام
گوشم
##دمه
رستگاری
ولایتی
انداختم
حجازی
ناسازگار
ختنه
دابلیو
Siri
هرودوت
شاي
##ious
##ینال
کارشون
##رکان
ایرویز
تمث
چشمش
شعور
برانگیزی
انیشتین
Photo
پارادوکس
هیمالیا
41
code
۰۲
خونده
بخیه
خاطراتی
نیروهایی
پیمانکاری
جویای
عذر
معطل
ضایعه
مستعمرات
سانسکریت
A4
##TM
رویاه
جهشی
تجمل
نیازش
تاثیراتی
شیرالات
گشودن
##ensor
عیدی
##ماهای
##CO
##ارب
بیجار
صورتم
مانندی
##نتین
##تانا
مغرور
هروقت
بیاییم
گواتمالا
Wall
شرافت
##چف
الجی
مداران
اوزون
فرمون
دلخ
سفرش
##اخان
##ots
گذرانی
2004
هولناک
فرناندو
گدازه
میپردازیم
۷۳۰
##مب
##حتی
برادری
کارکتر
اسفر
##یاپ
انتاریو
میزنیم
##etch
دماغ
چسباندن
##order
پاشیده
ضیاء
۴۶۰
ازاری
##ودشت
۲۰۵
اهانت
##وير
مشهدی
##ixit
اواتار
Tem
طغرل
##عبور
##FL
درف
مصنوع
خلیلی
ايمه
هوانگ
لاجیتک
user
هراسی
##ni
نامتن
مطر
سایتهای
جدل
نیویور
##وکسید
وحشیانه
بپوشاند
میانجیگری
ادمیزاد
اگرا
##فرم
نبض
ندهیم
بازگردانی
##ude
لشکریان
المالکی
XC
زدود
##EV
##وتور
جلفا
مضحک
کرگدن
Fold
Lock
زاپ
شورت
##زو
##دلی
##ذا
دیون
دورهای
دورترین
هوشمندتان
ریپ
سمتش
##جمعه
مادرشان
##مپیک
ارزانتر
Spot
پراکنی
همکف
خصیصه
Eye
بلید
بعهده
کونگ
##راد
ماح
نیوک
فضیلت
سفیده
انتظاراتی
بدانم
137
الموت
درخشید
درعوض
Service
ماینرها
ضرایب
چچن
۵۴۰
##۸۶
باث
الارم
فرانکو
##قبض
1400
بامبو
اویخته
منحصربفرد
Doc
Z4
جوم
دارت
زیرنظر
سبیل
ستونی
درخشد
تزریقی
سدهای
شادمانی
شتابدهنده
##رکننده
زنبورها
مرجعی
اشیایی
DVD
انژی
شهرنشینی
##گوشت
شیرخوار
سینت
شارلوت
نایلون
واهمه
تلقین
کنتور
هاو
سرریز
##اردار
نشدم
گشتی
لاکه
تختخواب
مستندسازی
شنوندگان
رفاق
سوهان
##go
موسسین
مهرگان
##omain
افسری
Inv
بشنویم
۱۸۹۵
هاچبک
Hol
وینگ
##DI
##erry
تیگو
۲۴۰۰
پیموده
##تماس
والدینی
56
kn
سورت
روبرت
کردنی
##ولند
خودرا
##میق
افعال
CB
##مهر
##یايی
۱۲۹۹
سردتر
کپشن
سرنوشتی
##امپیوتر
تودی
هه
##رکردن
هدفتان
شهد
##als
شیراک
مادرانی
ابرنواخت
پرهی
ازطرفی
دلتنگ
فرامرز
Journal
Ax
رگر
شي
وحی
##df
یکس
##لاسیون
مشیر
اصوات
مطیع
پردازید
۲۷۵
کاستاریکا
خندید
فریلنسرها
ارغوانی
Vivo
##لە
##نگار
##اندز
صداهایی
اماراتی
اسنودن
۱۰۰۰۰
صندل
دبیران
هلمند
میگفتم
پرینترهای
تمساح
سمرقند
Infinity
رزمندگان
Good
LS
part
دلو
میفر
##وریم
##الملک
هنوزم
کدک
سودمندی
سکنی
خیزش
راجرز
علاءالدین
Id
fr
type
منقبض
ترنج
ابشاری
چندمنظوره
تایرها
لوبی
##illa
چلنجر
Turbo
Sense
ظل
##ظرم
##fter
اغتش
طریقت
سینوس
نیروهایش
کلاسهای
##otion
بچسبان
غریزه
صبوری
##xy
##پزی
##وناس
برگیر
##lection
گذشتگان
بابونه
اشکارساز
رغبت
اسپویلر
Boo
Tra
امرای
پروی
سايو
##وسیان
الیاس
استراحتگاه
تامسون
Thin
##berg
##اعقه
گرامیداشت
زارع
مستثنا
لغزنده
پوکمون
اغتشاش
خبردار
قوری
گانگ
یس
باتی
##یتسو
##یسف
هدایا
##یدیان
نویسید
تفسیری
دردس
عبدالح
میترا
خالقی
۱۳۱۳
فیروزکوه
اساطیری
تناوبی
Optim
Don
ایزن
السلطان
دادوست
اجرايی
ساینس
ببینه
باتلاق
هولمز
استریل
سرزنده
هلسینکی
Dol
قق
بازپرس
ملین
تورات
کیسی
۲۱۰۰
تالارهای
حواسش
۱۸۹۶
خصلت
00
کورش
##EA
انگی
توفی
##باقی
کلهر
جزر
تلاشش
فرایندهایی
سردخانه
##ough
عتیق
بیفتند
84
Mw
SN
la
object
سزا
##ریر
##۱۹۹
##افون
تبلور
کتابچه
شیرها
نفسی
##red
Def
۴۴۰
بزارم
بسپارد
تفویض
Sa
list
نال
##جنس
مقارن
##اکار
وزرا
##ابلای
تنظیماتی
اسنک
رستاخ
فلزیاب
پویای
ایرودینامیکی
ووکام
Rest
open
نیند
میام
##هافته
##وموتی
##orer
حقیقتی
وایبر
نمودارها
نیافتنی
TCP
Build
برچیده
تقویتی
اعوجاج
Rad
XA
۷۱۰
##point
درنی
معرکه
انجامیده
مطهر
شبنم
ممیز
عبید
بحبو
لیزا
۱۹۰۲
بامیلو
DD
ثبتی
##yr
##روج
مدیرانی
کوچکش
Spect
ناتنی
بجوش
ممتنع
American
TH
fe
میخی
برنجی
هیي
خرب
مرکوری
واقعیتی
۲۱۵
تدارکاتی
بالادست
مقننه
67
١١
##یمو
##هایتان
سروری
فیلت
بلاد
مکینتاش
جاج
##cho
برداشتند
کیبرد
Facebook
فیلمسازان
اسپیلبرگ
SV
Titan
تالی
##کارت
کاردین
افطار
اشوریان
قابوس
تانگو
موادغذایی
پیرس
خوشگل
تکنولوژیکی
تاجران
۱۳۰۴
365
منوهای
هیوز
اشتاین
لوسیون
ارامستان
##eta
جدولی
کوبید
Mov
هیس
##چستر
##غرب
##Bench
##ابوری
توست
##میا
بدبینی
ملح
##essage
تولدش
##perience
ساتوشی
نغمه
پینترست
reg
غایت
ننه
چقد
##پیشگی
دریل
استراس
بربی
کنیسه
عمرم
بنظرم
مخمر
صددرصد
ببره
ایلخانی
بروکلین
لیونل
UFS
زلال
پلید
##گال
روسو
منار
Program
##istr
بهرامی
PU
تستی
کیندل
##Net
##ازول
اردبیلی
الکترال
ویتن
حسینعلی
جوابگوی
##لدون
دونستم
کاپشن
اگزما
ترندهای
پرورشی
میخواید
DRAM
Software
غشاء
گاي
##تار
##یشا
متاخر
نمو
میشویم
بریتانیای
اللهی
Maps
شنگن
پیغمبر
احیانا
Pure
##وشا
چندنفره
گزارشها
غیرخ
رودکی
##umb
افتابگردان
کونامی
Visual
داف
فط
##یدیا
برجا
کلش
زدگان
پلاسمای
##ips
سپاسگزار
قوچان
about
ادرنالین
Shadow
GFX
گت
##انزه
اوق
اهور
مخوف
داستانش
۱۳۱۸
پلانک
جلیقه
tw
زاهدی
شفت
صراح
غیب
چاوز
##یزیه
دوسر
ابولا
##وسان
##کتین
قیمتها
تکانی
مارین
میشدم
الیور
رقصنده
سوناتا
ربیعی
وراثت
فراصوت
iFixit
بویه
خاوی
صاعقه
لخت
##uf
ماکو
روشنگری
پذیره
گریل
خمیری
عطارد
بشنود
شامپانزه
مکاتب
نینجا
سوفیا
نگوی
##عبه
##ener
پانام
Analytics
اینترنشنال
Flex
رله
نکس
##نوب
ابروی
کالینز
##ویتس
##ola
انفجارهای
هومن
شاپرک
متابولیک
Commun
فمینیسم
Git
اینجانب
اسپی
##اردر
جنگیدند
دریفت
##ولدینگ
Stud
۱۰۸۰p
par
ژاکت
##وگرام
##شوند
##پون
براوردها
##ازاکی
تاق
کوارک
کلنگ
اوران
کارهایتان
مبارزان
مغزها
##لندر
نگارشی
پرتابل
کامپیوتکس
اخلاقیات
گارسیا
A14
Virtual
خفگی
بحبوحه
قوسی
سرسی
##اطی
۲۰۵۰
مغزش
##التون
شکستی
ضرورتی
اسموتی
سلیمی
هیدروکربن
##ption
حوصل
Opp
##سط
انجاست
چندز
تهدیدها
وپرورش
835
EA
XT
test
غازی
گيور
همگن
##تیوم
پیشکش
##فرین
۱۴۱
کوشک
##ellig
پیامبران
قافیه
اناهیتا
Cry
لولای
##ng
اوف
بخیر
ناظم
جوادی
they
خیالتان
Office
یات
##مارک
##te
همانی
منبت
تحریمی
داچ
وریدی
سرمایشی
زنگی
تلن
اسکال
خردل
##میلادی
##پارس
Adren
زندگیت
بلاخره
Magic
Premium
بنفشه
Save
pass
trans
ثم
قوز
ژیروس
ادن
نویسیم
دونگ
منصفه
کاغذهای
Plan
کوییک
میرفتم
هیکل
بگنجانید
روبان
یکساله
##وردگی
##فاوی
اسپارت
##olf
سایزهای
##تینمنت
همجوشی
۱۸۷۰
Wii
دانیال
اتانول
روانپزشکی
JavaScript
راگبی
گودرزی
Ep
like
کفت
کونی
##CA
##۸۸
درمنطقه
استیت
ارل
ارضا
هرس
جانم
۱۵۱
کشتگان
تیرهای
احمدرضا
Performance
واعظ
Green
Hand
V30
##پاس
ابجو
داعی
کانزاس
دوستام
مارمول
پسرانه
##umer
وایس
عدل
المسلمین
ویلایی
##خوردها
##پانک
Roy
رنه
مصریان
کانگ
کیوی
بوفه
پدرو
درحالیست
ابداعی
Nok
PL
Person
XPS
##سد
##vo
##خواری
##ونشین
ایید
زندیه
##onent
پنکیک
کارته
ادمهای
رمزعبور
اتومبیلی
لغوی
۲۲۳۱
##imes
Contin
سوادکوه
92
ربای
هایک
همیار
ایلند
##افرین
اتشی
اپلی
بنابه
##یزیانا
بیشه
تکف
##گوین
تابیده
بشویم
روابطی
بذار
مویی
رابینسون
Y9
name
فورو
هس
##خا
##ودرد
##ومار
رزبری
کمپینی
شکرگزاری
تامیل
زندگیتان
انقلابیون
##ooth
##ليان
زدوخورد
Mad
##sy
##ming
میوز
داو
مایعی
گالیله
مغناطیس
کلوچه
راکتورهای
ریباند
دورنمای
EU
Pad
ضیافت
پونه
ازرده
برسر
اتاری
بزرگوار
بلبرینگ
کیلویی
شارژی
نکنی
##سازان
##ume
##unk
کلانتر
کپک
تسهیلاتی
الرضا
SoC
اهریمن
Point
بفت
میکل
میدی
استنش
##ازدگی
ندا
تعالیم
سیان
بلوکی
##uture
خشکبار
پلاکت
ایپدهای
ریختگی
##لاینی
Player
پودری
برگیرنده
V6
جيو
ننش
انبه
توک
کارنگی
سربالایی
قبله
۱۴۲
اتصالی
گذرند
اروپاییان
نوکليوت
هاینریش
AF
ولید
##اپن
جوخه
۱۸۶۰
یونیسف
مسابقاتی
گزینی
هاردد
مبهوت
cons
برگزینید
BC
دیره
میاورد
پررون
بازیها
صورتحساب
نیابت
هنسی
رودان
##itive
پیمایی
وردپرسی
بپیچ
نامتقارن
اسکلتی
نیومکز
قذافی
ووکامرس
همبازی
منقول
فرسای
مرضیه
##لامی
زیرگروه
یادگرفتن
نفتخیز
##وندن
نفقه
شبهه
نوستالژیک
هموگلوبین
Ol
gl
جودو
##گاز
##انکا
میابد
هیاهو
کتابخوان
معلولین
##oney
متروک
میگیرم
سازوکارهای
B2B
بروشور
Nexus
ماحصل
ME
۸۲۱
دیست
بیوک
معوق
##پوشانی
انهدام
منازعه
##کودک
غزنوی
بگذراند
Adreno
استنشاق
حامله
##مکس
##لاج
فروری
سرمه
##وساز
مانکن
دلبستگی
تهم
فراگرفته
پوشند
چرخید
Flash
منسوج
شرمنده
گجتی
Mix
##TO
##۷۵
##field
##ستیکی
کاردان
داداش
تصوف
##اپه
بنابرین
لحنی
سعود
their
1440
انقضای
کینگز
فیدبک
Image
میمونه
فرورفتگی
داستای
750
##ql
##واسی
ابنیه
همانا
خاطرتان
هفتصد
سیلین
فریبنده
استیناف
Graph
زانوی
محتاطانه
پارالمپیک
وول
کورتی
##سف
##کتیو
میفته
دیسکی
بیوتکنولوژی
بازارهایی
اهدایی
مایوس
وزارتی
قراردادهایی
تلوی
پلوت
لاو
بهمراه
بشنوند
1399
تفصیلی
وکیلی
صراحتا
Mail
عسکری
وبی
میب
##ارتون
##راهایی
مغزم
طلاب
بفهمم
تجمعی
Native
Pers
رندی
##وویچ
موحد
##تیان
فضايی
امنای
اسکیزوفرنی
سرخوردگی
روایتگر
دوبلین
میگذره
نیفتاد
انتروپی
دلقک
Kar
Sing
car
امون
ایوبی
خوایم
##یشو
انتوان
اقل
ندانید
درونش
##oth
تیران
برادرم
مجوزها
گالن
کلمبی
پارامترها
##ynos
چگال
Custom
##وحی
##SQL
##bench
بالف
همپوشانی
افسون
ارسی
##یسین
اپریل
##انتخاب
رکوردشکنی
۱۳۱۲
پانزدهمین
میدادم
##ission
P10
##وپر
بهکی
شکلک
بلندای
لنفاوی
وبلاگی
پورتوریکو
FAT
che
تارت
کثی
##رنج
خواهرم
پسین
جهادی
کتابت
کتابها
طبل
۱۸۵۰
2002
۱۳۲۲
##eph
نگرفتن
##ومرث
ققنوس
Alex
ریکی
غیا
نگردد
کثر
##ling
همی
##فتح
عمرو
حسگری
مدتهاست
اروند
نامناسبی
sec
جلا
##اگر
##Bay
نماهنگ
جنت
اژور
سیرک
جیلبریک
خوانساری
Aqu
Land
SK
watch
جلیلی
وودی
دستت
اختیارش
مقیاسی
سوءت
بپرسد
برملا
فهمیم
1990
دیفندر
Rel
bas
غاری
درط
##روض
##نیس
اجته
زیرو
بگفته
کمکهای
محسنی
بیرم
رتین
اناناس
کیبوردهای
بپرسند
فیبرکربن
استنتاج
950
Mount
sm
هانگ
کبی
##ویسان
ارق
متاف
ادیتور
##اکتری
هیاتی
لواسان
لینچ
دموی
خیرین
اسلک
کمربندی
نایاب
Creed
سدی
یمنی
##69
##62
براک
بدرد
حلوا
مسیرهایی
لوین
شناسايی
عبدالرضا
##uman
ممتد
##ologies
What
Assass
شریعتمداری
درامی
##یرز
الث
مالیه
میدانم
##ager
افسار
سوزد
یارانش
حوزوی
میروند
تارنمای
فوند
قایم
##اسین
روزای
چیانگ
سعیدی
##فلر
نهادن
Exynos
مارمولک
Bion
جلیل
چرای
میون
##الن
سازمانها
بستک
۲۴۹
بلیز
وردی
قناری
جسیکا
PP
لنت
گچی
##گیت
روزولت
##واهای
دنس
عقده
بندها
میدانیم
ژانرهای
مریخی
هیلو
۸۷۵
الاباما
ژیمناستیک
Na
PM
بویل
جینی
شیلات
هگز
وامی
کفی
انری
امدید
##ازیس
##ولر
بازدم
اسبی
کمدا
مرشد
ساعد
##يیسم
خورم
امپول
سرکش
نگذاشت
مراجعین
##سلیمان
رگرسیون
Form
Oper
ووی
##شتون
مزخ
پیکسار
اشناست
پیمانی
نمازخانه
۱۳۱۷
زاير
دلسوزی
فايق
اشتوتگارت
رفیعی
##Tube
##اختن
مرند
شکیل
اپلیکشن
هندبال
##ama
گرانقیمت
##emon
HDD
عطرهای
رنک
یاسو
سرلشکر
شتافت
رستاخیز
گاری
گوه
##وریک
همبرگر
کاردی
دیکته
شاهر
سردشت
دامان
##ovo
Elite
CVT
هیيتی
A12
NH
SMS
تمی
جشنی
هژ
ستاری
شناساندن
حواسم
##ماندو
دونید
ملتهب
سوپرا
منوها
کامیابی
میثم
البالو
Nokia
acc
##ایاتی
بربر
دوید
معقولی
کردنشین
شنل
گلش
##رمو
ارامشی
کرومیوم
پرفشار
مهارکننده
قنبری
پنداری
بوستر
شیمیدان
بچرخانید
نگهداشتن
جامی
##ووا
اماد
قرارده
اکستن
دانلودی
امیران
خللی
تحرکی
دسرهای
ایزدان
پرنور
LE
پولیت
##موم
##یتز
الفون
سرخی
مجسم
اخط
چهارگوش
ارواره
اذوقه
اردلان
رنکینگ
گریختند
منتشره
ویتنامی
FP
air
ملام
قرینه
مجریه
##وتان
روشنفکری
نگرشی
چارچوبی
Shar
کوکاکولا
صدیق
وغ
##ماها
##AB
ازاده
##یداد
کلوز
مستحق
بلوچی
دربیاورید
ED
Pin
کعبه
دردها
ادریس
گوست
نشانان
اموزانی
##ators
ناپی
ملاقاتی
تروفی
ورشکسته
کثیفی
Mil
بانه
وفا
١٨
##شاده
کارنا
متخاص
اندلس
مجهول
کیانی
Assistant
خانقاه
مازیار
ژور
##سس
##روه
مقار
نقاهت
چندماه
۱۸۹۹
Report
گیلکی
امدادگران
Clear
##ktop
الفاروميو
دردسرساز
Att
Of
min
##por
کمب
ارتباطاتی
##کوفسکی
پنکه
مامایی
بکشه
##پلنگ
بنیانگذاری
مینور
2001
هیدروکر
۱۳۱۵
میثاق
ژاندارم
Ur
dig
۵۶۰
##نمی
گردانی
بدونم
ستیزی
زیادتر
۳۰۱
194
هیدرات
مادامی
حیدریه
لعنت
فمینیست
##امزدا
بلشویک
نیومکزیکو
چیا
چینه
همشون
موگ
##هاش
##وبند
شهیدی
مرتضوی
هندور
بازدیدهای
##usion
ایندگان
حجاری
الاصل
۱۳۰۷
ایلامی
میگیرن
کراچی
بهبهان
وتحلیل
عریان
##سکا
بانگ
کیومرث
ترسیده
بنزن
فتوحات
JPEG
##vidia
اهورامزدا
2K
att
زوجه
لست
##لث
##کتیک
امریه
موک
دوار
ویرون
تریپل
اجرهای
عبدالم
بیاورم
۱۸۹۸
CDN
استثناء
Dou
Gar
Mart
حما
کاین
##۸۵
کشیم
پرند
منتور
برگزارکننده
##پنجه
سعداباد
شپش
مطرحی
نيون
##mail
السیر
اندیس
##یستان
نمیز
تعمیق
قدرها
اپلای
حضانت
خوردیم
##reg
پاکیزه
پلمپ
##ason
مغزتان
همزیستی
نوزادانی
نگارخانه
ذهاب
پوچی
میکشد
۹۱۱
فیزیولوژیکی
پیشکسوتان
Mor
بترس
رفیع
هاری
##زند
میگوی
معاینات
مجزای
اتلتی
##اکیه
فناور
اروان
فصلنامه
باورش
مفیدتر
غیرمسل
ارجحیت
خمین
۵۲۰
کارجویان
##لولی
عجول
##فورم
۱۸۸۹
IMEI
تراموا
Table
With
##سوم
##ior
##غب
##وییت
التماس
تنهای
بسازم
تلکام
چسبد
بوتاکس
امریکايیان
قافله
Wireless
Ray
فخر
چخ
##ترون
بیخ
اتات
نوای
جنگجوی
پایینتر
اتومات
مشروب
##NAA
صباح
لارو
٣٠
کتری
برگی
##ردر
دیوتی
دورف
داوید
گیفت
بگین
##ویتز
خوابید
##enture
باطنی
خرسندی
ناهمواری
کثرت
دابل
سرپیچی
مسند
ساختی
جهیزیه
قباد
سیلیس
محدودکننده
راهیابی
کروات
عطری
نوبخت
لکنت
5s
Hub
اریت
کاين
##rent
رابی
الل
فراد
پیغامی
نیای
اهود
برداران
##رحله
اغوا
جاوه
تابد
العربی
تياتری
State
مسجدسلیمان
##ogn
بیهوش
مهدکودک
سرگشاده
TENAA
بادکنک
ژیروسکوپ
تریک
گدار
گاوی
##کامی
باجه
##هاى
سرپل
مجوزی
۲۰۸
##ونیان
کنارم
خورشت
اندرومدا
پرسیدند
تونسته
Management
چندملیتی
کیوبیت
اکتیویژن
خمیرد
مايو
هزارت
همزمانی
پدیداور
ورزیده
##وپک
##oci
قنادی
گهگاه
واکاوی
پدربزرگش
رالف
اکستنشن
First
جسته
قونیه
##ورین
برب
هرقدر
جنگند
##rough
چرخاند
نکست
ترجیحات
اثاثیه
حوصلگی
منسوجات
79
##جری
##نسی
ازپای
##ناصر
##کلس
ماهور
راهبان
جنگجو
##atus
ناهماهنگی
نتونستم
چرچیل
حدفاصل
UC
رپر
فزونی
لوستر
یغ
المع
مهیب
هیپن
اغاج
ستادی
واقعیات
خروشان
سیاهپوست
##uss
یوزپلنگ
پروپوز
نااگاه
مجتهد
Cast
Drop
NC
V20
##دون
پریده
##اير
قدامی
سنگال
پژمان
##str
##elp
موثرتری
نواک
سپهسالار
معناداری
هنجارهای
فوروارد
اتلتیکو
650
TP
جابر
##کنفرانس
صنایعی
بفشار
گناهکار
جادوگری
پرمخاطب
چندزبانه
AG
Bo
شفر
پزی
رواق
الوند
تبتی
تکریم
دکوری
گوشتان
بمبگذاری
کافکا
تحولاتی
حايری
Weibo
ارگونومیک
سانی
##دو
##ستاین
##اتش
روضه
##مانند
شوتر
توسان
شهوت
پذیرا
خوابند
عاشقش
موافقان
بیسبال
##pha
رازیانه
کويینز
فراساح
داکت
رمی
شهربانی
سهند
کمیسر
##itter
ضدب
برادرانش
فجایع
red
زون
##يیم
##EX
تیموریان
##اسیک
نویسندگانی
رمزپایه
Story
اسیدها
کاراکتری
سردردهای
نيوک
کنکوری
سایبرپانک
EB
Effect
GM
RD
br
طنین
هولدینگ
##حا
میبینی
##نگه
##فرش
تحلیف
##زیو
پروا
تعبیری
وبگردی
داستانهای
##ading
ولتی
تماشاچیان
##اتونین
##ister
ریچل
برخاستن
تعزیری
ThinQ
Assassin
Qi
شعا
یف
۸۳۰
بیفته
##وهی
##رايیل
متناهی
پرسود
گرانتر
David
Nvidia
ذغال
فشان
##قاله
##ازید
الذکر
بیسکو
گوارا
پارینه
کرکس
اینفلوينسرها
ابرخودروی
مبتکرانه
GO
حلو
لورا
##بلند
##tain
##dit
##المع
الزه
الریه
ماش
پروری
شمردن
رفتید
تشکیلاتی
فارادی
چیزیه
##قاوی
لیندا
گناهان
تروجان
نبرید
htt
بپیم
نویی
##دانی
براندازی
املا
موزون
یاغی
ادریان
تنسنت
شاهراه
مکررا
ژرژ
امپرساعت
نوترونی
Linux
میتوکندری
DH
##زمانی
##WA
میبره
روا
اندیک
رفتی
شاء
۱۵۲
فرانچ
مراجعان
میدانهای
##amb
فیو
اصولگرا
وارون
قیامت
کاتالونیا
##ويیدها
هنجار
##دمهدی
ارقامی
Box
C3
rel
دوال
اوایی
متزلزل
ویبو
متحدین
امتیازدهی
مورب
استیج
دبلیود
غسل
##bn
استدل
##رکی
بازیس
الوپ
گرانت
اعجاب
گلودرد
نمایشگرهایی
ادموند
Spec
APK
دیمون
خویشاوندی
need
هیتر
کبال
##سید
##NT
انکر
اسلیم
##واجی
فروتن
##ایلوت
بلان
##رخش
ظاهرش
شیروانی
لینوکسی
##ability
چسبنده
گلوگاه
۱۸۸۸
ترابرد
Bridge
پیله
Desire
دادوستد
Cas
Saf
eBay
ارده
سگی
غشا
##85
##امید
##شتم
همگرا
##عتبر
انتساب
دلشان
اهمال
نیازشان
مراکشی
نکردنی
تماشاچی
Thread
ناقض
ماهرانه
so
ظریفی
##ls
همفکری
خواران
##ومری
دلتای
نخوانده
فضاسازی
خاطی
##وستی
##ita
والاس
تالکین
پوندی
نزند
Wars
یوزف
میاندواب
اتکای
##to5
شعاعی
RP
##ووی
##mark
راکی
##ابدین
روف
بداهه
##اکشن
پرهای
##دران
۱۳۲۱
ورسای
##نشال
##ipp
میرسید
لیبرا
موندن
MRI
iT
جکی
پولو
##یزا
##یلک
گوشیم
##iny
هواپیمابر
تحصن
درونگرا
هاستینگ
اختلافاتی
پورن
مرغداری
گنجاندن
شعارهایی
عاطفه
##ments
متخلفان
Explorer
Battery
css
ترزا
دستانش
سرپا
جایگذاری
شهبازی
##ones
ایمیدرو
جویند
تخمه
گویان
پرتردد
دینام
سنجد
GT3
نیشابوری
سوسن
##یییی
دوهفته
مشمولان
91
##ابلس
##یتری
بازجو
چکمه
۳۲۰۰
Blade
سیگما
موروثی
لاکهید
Kh
ثلا
ربانی
ممالک
##غدی
##لاپس
دوربرد
زیرگونه
هدایایی
جزای
تکون
اکری
رهاسازی
العابدین
ششصد
ولایات
سرخک
دانشگاهیان
۷۴۷
هانتر
ليونارد
مارکسیست
تیتان
سولو
##RC
##طلب
##dream
##خرد
همیاری
چهاره
##واروپ
جانمایی
##00X
##ala
احمدشاه
بیزانسی
یاماها
زبده
خاویر
پاتوژن
House
ML
call
ios
زیکا
##ودات
الویت
##گردانی
موسولینی
راستین
کیوسک
ازادیبخش
راداری
سخنانش
اشتیانی
خیزد
CO2
هرزگوین
Multi
طفل
چیرگی
##نید
خوشتان
متفکران
دلمان
ارتریت
اکرو
مسيولانه
مخاطبانش
امپریال
Switch
پابرجاست
پربازدیدترین
سزاوار
LD
XML
تیف
بیضوی
ماکان
مارم
مشتریانتان
نباش
کوشند
##ection
۹۷۰
240
##ffic
هریسون
صهیونیست
گوسفندان
PES
Water
el
##ja
رواندا
گلادی
میکنین
مطمينی
##لیمو
Qual
شیلر
Bionic
متخاصم
کاينات
Pi
Walk
بتر
جند
##uch
دارايی
تاول
ساختم
برندتان
ملاتونین
کاو
##رشید
کیخسرو
اعتبارنامه
چاقوی
مطلقا
کریسپر
بسپارند
هلاکت
خربزه
86
##ندرا
بهداری
##وییل
فرونش
##کنند
##برداران
گرافیست
گریت
نوزادتان
انزیمی
مناقشات
رفراند
##ةالمعارف
هارددیسک
69
act
##لایه
توکار
منبر
بازخوردها
میزدم
دانلد
Stand
نیکارا
فهمی
غفاری
کلانشهرها
المنافع
خمیردندان
بسم
مضاع
گنده
##ael
##وهش
احاد
کوارتز
پنجاب
تلاشند
کاووس
رهی
العمر
سهمگین
##ساخته
وینستون
۱۸۹۷
غلامعلی
پروراند
MT67
ابومسلم
خلفای
##ause
میزنند
مضاعفی
QLED
Wild
del
##گازی
ایگ
اوکی
ارارات
روزترین
##وبو
کوبه
سریانی
سنوات
بندیکت
نباتی
فهمم
انقضا
مدنظرتان
۶۲۵
ناقوس
محتواها
متفرق
دجله
Sy
Sum
Sand
mode
شول
##360
##ورود
کلات
مردمش
اختیارمان
ژانگ
توپولوژی
بندرگاه
ظهیر
راسخ
هندوها
میرسیم
White
متصرف
Daydream
ضعفی
پتی
##Pass
##ازیت
یکای
اسای
فرمال
۱۳۱۹
##وارا
##مدن
۲۵۵
##igin
کشیدگی
ذوالفق
62
Lar
##EP
##erm
ملال
##isk
سوارکاری
YouTube
ToF
الونسو
تایتانیک
82
Hist
sw
حجاج
ژلات
##تیکس
##وشنی
##یکالا
دوراهی
##زدن
اورارت
گرافن
قراردادش
سیدعلی
پستاندار
حاضرین
پاهایتان
cre
فویل
اشیل
کالیبره
کتمان
Device
##کوپتر
راديون
زنبورهای
تمهیداتی
Technologies
۹۰۰۰
##down
##اموزی
کاردر
رفتارش
یونیتی
محمدمهدی
چرخیدن
لاوان
مقدسی
دیلم
76
Ben
More
VS
ret
خلفی
فاب
مابه
##cast
بیارید
بیگم
بسیجی
شهیر
##ولیا
تلاشم
لوید
صرفنظر
باندل
Plat
تدابیری
66
درماه
اندود
ابوعلی
۲۰۹
کاهنده
سیمانی
نشستیم
##ima
نمیدون
کراپ
قالیش
ابخیزداری
##واروپایی
ne
بولد
##کوم
##800
##شتاب
بازوها
مدح
سرحد
خواهرزاده
ابگوشت
دادسرا
اصف
شهودی
بگیران
سانروف
پسرعم
جوابش
ریسه
##iff
زندگیشان
عقلانیت
مباحثه
هیلز
غلامی
استفن
القاب
Det
Pop
TS
زکری
##ژنیک
اسمز
اسمون
##وشه
هیچیک
غذايی
برگزیدند
دیجیکالا
نبردها
گنابادی
علاقمندی
##ocket
develop
سرسبزی
##کنترل
WHO
Xiaomi
بفشارید
MG
ملوک
بیشترشان
گردم
بکوش
اهنگری
رسانای
رضوان
تزاری
بپرسم
مسدودسازی
مبالغی
حشمت
زشتی
لي
##طوم
##ta
##لیتر
کمرد
مجاهد
##واچ
میانسال
دولتهای
مقرراتی
پترن
Motor
نگیریم
کوپرتینونشین
پسماندهای
Clean
پروپوزال
ثرو
دکه
##AV
میزی
استارشی
خودخواهی
##دهزار
مقب
نیابتی
اهستگی
گلدار
۱۶۱
فرمولاسیون
پیشتازان
بوندس
##TuTu
رفاقت
گونی
##ua
##چینگ
ازتون
انفع
##مانیا
گلچین
افتضاح
کمیساری
ریپورت
خوبیه
مارسل
وسعتی
زمامداری
پریوس
هوراکان
کارفرمایی
شومینه
تلوزیون
XDA
سایل
ویستا
##حاک
##36
محتاج
کلرو
##ota
ترسناکی
شناورهای
مینیاتور
AnTuTu
دانشمندانی
نهادهایی
##ergy
بدخیم
کیمیایی
Mich
##aS
افشان
پرج
تعص
میلیونها
دستیاری
پاچ
##unes
سمب
البراد
الشع
عایدی
کریدور
لاکتوز
ستوان
##ao
کارپ
کارمون
پرای
انتشاراتی
هشتمی
نباشم
روميو
بزرگترش
البرتو
شانزدهمین
نبیند
صوفیان
موهبت
320
غزنی
فیکس
چاو
انلاینی
##اوران
##ایرانی
##ille
فولات
قلبش
فیروزاباد
which
کاتالیزور
480
5S
LAN
ريوس
##pack
##چالی
خودمانی
محرز
دووم
ایرفون
##ناعت
چندجمله
گردشی
میلیونر
اشتهایی
کاناله
خوبم
گرمکن
مکانهای
اژیر
امیزه
جکوزی
۳۴۹
تالیفات
مگاواتی
دیسکا
هیستامین
ندانسته
P1
جفر
##ضرب
انجین
مثمر
فروهر
##سالاری
الاول
یلدای
سلیمانیه
پررونق
Dream
Ub
خنج
##RE
##خط
بروکر
بگن
موبیل
##کوویچ
چشمانی
##iron
نگارگری
الحق
اویغ
خندق
فوربس
کریکت
استارشیپ
DM
Found
KGI
هونگ
ژي
ارادت
سراتو
اختلاط
##ague
Prof
ذهنت
کولرهای
دیوانگی
رندرها
مقتدی
سجاده
Labs
موگابه
Break
Ros
google
نقدها
##بالا
اموزند
سودهای
خطرهای
میدهید
ابداعات
محدب
۱۸۹۳
انچنانی
روترهای
نمیکنند
میبرند
کیلوبایت
gr
mult
میدهم
خودبه
اسطو
بودنشان
گیرا
2080
قانونگزاران
شهریاری
اتاقش
گویندگی
رسانایی
رادیولوژی
گناباد
بااینکه
استارباکس
ببندند
Series
نابسامان
Oppo
G9
Hard
##ved
ایفونی
کردنشان
عکسهای
فوتوشاپ
سرکشی
##طبق
اهرام
پاهایش
ريالیسم
عتبات
FM
Zoom
برافرا
گرادیان
##اختگان
جمالی
کلفت
##بریز
مارها
نیمروز
سیلک
۲۳۸
بیداد
زايده
صیاد
موازنه
تیشرت
خیم
گهر
##سترهای
##برز
اتلیه
ساختیم
بلای
کدهایی
##hem
هشدارها
هرکدوم
Application
میگیرید
##coin
Check
G2
۶۹۹
##خن
رومینگ
قرضی
تهمت
##etter
غربیلک
مهاجرانی
نرها
##گویان
##action
گارمین
dec
بندان
وگویی
پپ
##Sp
##اتوم
الدر
سربار
ماورایی
نسبتی
اپت
حداد
مستی
تخفیفی
ابرقدرت
اژاکس
کمبودهای
کاسینی
۱۳۱۱
۷۶۵
بفتا
سدها
##Ex
##تیه
مختاری
انگاشته
##icon
##ste
سردترین
گرافیت
سرکوبی
ساندار
سمیعی
لنفوسیت
سندیکای
اجتهاد
A6
Boot
Cop
خفته
ونه
کرس
##بافی
الترن
مجزایی
##وبار
کانکت
فراورش
عملکردش
۳۰۵
محبوبترین
موثرند
پیمود
شفافی
۳۲۵
کاپریو
##active
کمانچه
بیفزاید
تاندون
لاوروف
گریگوری
درطول
Long
Mat
جیرو
رعیت
##ازمی
مناصب
پیچی
برگذ
##ايه
زنش
##reme
میخک
سربازانی
کارمندانش
مخلوقات
اعتیاداور
Compact
دربیاید
معنویت
لوزالمع
دوسالانه
الاجرا
Python
رفل
طفره
غریزی
ماتی
هیزم
##ندز
براف
##لاژ
بیار
##شیبی
جذابیتی
۲۴۵
امتیازاتی
فیلترشکن
Process
شادتر
##pport
طرابلس
۱۳۰۵
۱۳۰۸
متقاطع
مدرسین
گاردن
دهقانان
دیفیوزر
لوزالمعده
Bank
۶۸۰
##دستی
##يیل
تراری
نقایص
##وسکوپی
احقاق
انگلا
خیلیا
حضورشان
تابستانه
عصری
گوریل
سنترال
صدیقی
ارتعاشات
کارناوال
مقبولیت
کمیساریای
البرادعی
دیسکاوری
Div
X7
بکت
عسلی
##اخی
##Mark
روزن
تمشک
گازوییل
سیاهرگ
اسانژ
استثمار
محترمانه
منقار
مورخین
ابتکارات
تامپسون
ریدر
چهر
##وستان
##وسل
بنک
همراهتان
##وکروم
سختگیری
محمدخان
اذرخش
یونجه
ماسوله
تعلیمات
۱۳۰۹
فینالیست
IPv
1999
منچستری
کبودی
ایپدها
درباریان
Pat
i8
حجر
کز
##rary
##اموتو
سربرگ
مرغان
گیجی
کسروی
پشتون
اثرش
##ibility
##پردازنده
عالمه
کریستیانو
NSA
build
الاف
غن
ادگار
سپارد
قطور
مناسبتی
فلوت
۱۶۲
ترسیدم
دخمه
یوزر
انطاکیه
VM
داکی
شامی
ضایع
لجب
##34
##ii
##fo
موزایی
##وزید
اولاد
شنوند
بنه
هوشمندتر
##فهیم
وبسایتی
خلط
انحنا
process
۱۸۸۶
پوسیده
ASP
##Play
first
اچار
مسته
##۸۷
انیکس
بیکن
بدرخ
اعص
قیمه
دهندگانی
کامو
دنریس
بدنام
ترسد
##utter
ذهنتون
وینسنت
Death
۱۳۰۶
ترمزگیری
پسندند
Pet
اوش
دث
##وجب
##حانه
کندانسور
دیا
دانشمندی
جهانگرد
خوبش
جداکننده
اروپاست
پیما
سیراف
امتحانی
وارنا
روحانیان
ساندبار
واژگانی
زهکشی
MP3
اتابک
تلمبه
ودیعه
پانامرا
خزه
هراک
وپنجه
##شغ
دورە
##کلر
اپاچی
صنوف
معلومه
ریسکی
بطلمی
##گروهی
روباتیک
امپراطور
پابلو
##لاسیک
نفیسی
iPadOS
میخواین
روبرتو
ژوراسیک
قالیشویی
خراف
لاکی
##بلیو
##۶۵
تاور
افکند
##ادیا
##ering
##هنر
دونیم
توصیفات
غربت
متروپ
اهدافتان
##ainer
همکارش
also
یکسره
Ob
ساتر
ویست
##گای
##ونایتد
عشاق
استراما
خاطراتش
التهابات
۵۷۰
پلاتینیوم
Account
قاتلان
بعضیا
بچسبانید
حبه
گریف
الکان
اشکاری
اقاج
رنگش
مشترکا
ناباوری
هارلی
۱۸۹۴
##وهانسبورگ
کبالت
5D
جدان
نجم
##۳۲
دارپا
##تیل
بازدار
شیرد
هنرجویان
اسپه
بیران
ماندلا
##ula
Low
حرک
##عراق
##eh
##چوان
##ground
بینهایت
##والکتریک
کوبیدن
دبیره
Ann
نایکی
HDR10
تفرقه
منازعات
index
Euro
Len
فاشی
ارزد
بخود
##ination
مغولی
مدرنا
ابانماه
بذاریم
دیلمی
هالووین
کمردرد
AU
make
لوا
گودی
##AG
انند
##فتون
کمانی
ادری
ورزد
برخودار
اردکان
انگیزد
اوریون
اندیشید
سونات
تلسکوپی
سپهری
غزلی
run
sett
سیدی
گالات
##فعه
##امیکس
معبر
اپوکسی
بزرگانی
سنگواره
سراج
۶۷۰
تويیتری
معتادان
لاهور
کابران
علوفه
Cell
بمیرد
فونی
قدی
##ستار
استامین
ترمه
ماژیک
هدفم
هنرها
هشتصد
بکوب
پالاس
سلاحهای
##anger
قلمروهای
نگذارد
گذرانید
پارادایم
Awards
Rich
خدی
داه
مبرد
بااست
تايو
شهامت
اشتهای
زحم
۴۷۰
1397
##flow
نقیض
A50
Far
##حس
میرا
موومان
بازنگ
اسنی
سرلو
هدفشان
کلیکی
تابشی
ماسال
اهدافش
اندازها
واکسینه
توقعات
Prom
زایس
##ework
what
ماکايو
Remote
جانسپرد
صمغ
GDP
high
زک
##چونی
##۴۴
##ارث
درین
میشین
اینباکس
کلاین
کرنش
سامرا
فارست
باورم
باغداری
##ocation
ویلن
التفاوت
Quant
خرسند
منزلت
زانوها
Pred
زندگیمون
خوشنویسان
HTML5
##چنکو
Legends
فروتنی
پریسکوپی
باثبات
کاردینال
Ba
Dest
##look
##لوند
##زدار
مراودات
واگیرد
عراقچی
چشیدن
۱۸۸۵
دهلیز
رختکن
نپذیرفته
خدادادی
کارکنانی
توفیقی
9to5
Just
cur
زرنگ
اربیل
##زارهای
##شرق
بیشمار
مردمک
برخورده
##roup
بلندهای
سردم
معروفیت
مغزهای
##پلین
ونک
گیلبرت
محدث
بلاع
موظفند
کیانوش
اندیکاتور
Ear
world
اونه
ثلث
خیاط
زدید
##یمم
امدی
##اسنج
##یاک
مجادله
رنگها
دنیرو
جوج
##elt
میشلن
شهرداران
##روتيین
ایلخان
وجور
ویراستاری
value
معارفه
Are
Lim
mm
قورت
گوتن
۶۲۰
۷۹۹
##رر
##ek
انشا
خودتو
نیازمندان
علویان
##گذاشتن
اونگ
پادک
مراجعات
۲۶۰۰
تاجگذاری
متقابلا
رهنما
نژادپرستانه
لوزان
ارتدوکس
R8
لاما
##iam
##رکار
افزایند
ناظمی
روشویی
جامانده
حقیر
##کسیونی
پوشانند
خوانین
##وفیل
پاچه
Stack
China
اشتغالزایی
پهلوانی
import
Razer
خاچ
کفه
##کلا
##vy
##ینگز
##ايیکا
مایند
##مونت
انگیزتر
##urg
پریشانی
جاسک
میسازد
##prise
people
نیکاراگويه
##FI
پایگاهی
هیلی
##نجره
بارزی
کاربرپسند
بالاخص
عقیم
شارک
##hed
دیدارها
حجاز
Christ
مکرون
بلغور
برادوی
حیله
دها
بیاریم
پرایس
هنکس
##شدگان
پولش
تسکینگ
سوختگیری
نیکلای
Protect
Review
۳۷۵
پاشیدن
فروختن
فروختند
پیشتازی
عبداله
صلحی
AFC
زبیر
زوجی
قایل
پانس
رویشان
##وتومی
عمار
ناملم
فروزان
##زدیکی
مخاطی
خنکی
کافر
امپراتریس
وینیل
مظفری
فتوسنتز
##ension
ارجمند
بوندسلی
عبدالحمید
6s
S1
big
other
pol
وکتور
ژوهانسبورگ
##och
##cel
##LP
متک
تولیدم
##فهوم
لوازمی
عملکردشان
عجین
##aya
۳۹۰
پاندا
کنتاکی
دلاور
هولوگرام
فرنچایز
پرسونای
لمانز
980
Get
NVM
ویبره
اشارات
رایگانی
شاهدی
دومش
پاسداری
کانسیل
پیرمردی
##چیق
##hell
##ives
کتانی
همسفر
##کونن
قدردان
نمیخوام
بهاءالله
Nova
خدابنده
Launcher
اوغلو
Dolby
فیوچر
89
Ever
Self
down
var
ظفر
١٥
ازس
براکت
جمش
گلها
خوانا
عربستانی
##ids
##ention
جوابگو
انفور
۱۳۰۲
سحرخ
جولیان
عالمان
قاطی
دانشیار
مارکسیسم
لويیزیانا
Paul
دوگانگی
Od
سیسم
##لسی
##vc
##۷۷
##شتاپن
ابکش
##ابیان
گماشته
استحصال
ایراداتی
لیکرز
جونو
پترولیوم
ابرکامپیوتر
شقایق
Fri
Sav
١٧
۵۹۹
##ماندی
معرق
نامطب
ماورای
پروران
اپتیکی
بارگاه
شمعد
اخترف
کسان
##ato
لباسهای
فشنگ
درجنوب
فواد
لوکوموتی
میکشه
مگابایتی
سپاسگزاری
گومز
دبلیودبلیو
BY
NO
word
خاش
قادری
##زنگ
##ces
##يیک
کهریز
همدم
دوهزار
##افیل
بدش
شاگردی
فشارسنج
پدرخوانده
مولفان
دکترین
##iple
باندی
کوبایی
بوتاس
نطفه
میدونیم
دايرةالمعارف
Best
حنجره
زیدان
شلی
ضحاک
هین
##۳۴
##ورال
راتن
##یزاسیون
۲۰۴
مبله
بانفوذ
چسبیدن
محافظان
استفاد
انچارت
سجادی
املایی
Island
ضدالتهابی
حماقت
بیرانوند
بلیک
##Port
##ونلو
دستمان
فرایدی
ارادی
تجو
واست
جامايیکا
اروین
زودگذر
ولش
Spl
ارکیده
۱۸۷۱
وطنی
بلاتکلی
گورکانی
الزهرا
لابلای
نچ
##کاره
##31
##انع
ایوب
توانايی
بینال
بلورهای
قدرتش
##يیان
لوگان
پالمر
رقیبش
قشری
فیبری
مخروبه
روانپزشک
بهبهانی
دزدیدن
والمارت
اطرافتان
ویسکوز
VC
mini
##watch
##ابراه
اندامی
مهل
##رسیتی
تقبل
##استی
جوون
موادم
مسیرش
منظورمان
بپزد
ماموت
سانچ
متعصب
Inn
کامپوز
Phil
هانوی
##محمدی
Surv
art
Valley
سارکوزی
اوقاف
ناملموس
Dist
node
ثقل
میا
خودخواه
کارواش
سالید
##اشتم
افراسی
##وزومی
دلگرم
شنیدنی
موبایلتان
شعرای
استادانه
هکتاری
استارز
پاتوق
فضاپیماهای
مومنی
Instagram
A13
SO
یوج
##29
ازه
##لیش
اموی
##انسکی
ریوز
لوینسون
تابان
پدرشان
بسفر
العبور
##لاتور
کرومات
استرپ
استرلینگ
الاچیق
قایقرانی
لرزان
دراورید
هشیار
Ghost
OC
Racing
dr
##گسی
##oor
برانسون
ایبری
کارک
متمدن
ابون
معماهای
میزنن
##شهدا
##ines
دخالتی
هورن
ریکاردو
سپهبد
نااگاهی
##tainment
87
##الار
##امات
رویتان
##هاور
گوشش
بگونه
مسلمین
مرزبان
چشایی
فلوراید
پیتزای
بیاندازند
Geekbench
A11
صحه
عبرت
یدالله
##ازیا
فرماید
##فرما
مصايب
پارکی
##ald
کارهایشان
طلبه
فنرهای
نادان
##۱۳۹
کولرگازی
ارگاسم
میگذرد
پلیمرهای
نامطلوبی
جیکوب
نیواور
غشایی
##جنگ
مسعودی
شهرا
گلوی
نورالدین
##change
گیاهخوار
1970
کالیبر
وینس
زعفر
حیثیت
میهنی
نابینایی
مافیای
FATF
بلاتکلیفی
6000
Ent
K30
Sleep
تغ
##ny
##bar
##BL
##ینگهام
##ازها
ابوط
مخزنی
کلیولند
رهگذر
هندواروپایی
فرهنگسرای
وکارهایی
برونو
Flow
سرسره
ازمودن
ترانزیستورهای
متخلخل
متغیری
استراماچونی
زاهد
لنی
##زور
مویر
مشکو
##متون
تدافعی
گرافین
۱۷۲
میدونه
خشنودی
داینامیکس
استریپ
Online
لاجوردی
هوافضای
مرعشی
استراسبورگ
انچارتد
ABC
rem
طاووس
هانو
##زال
تاحدی
منویی
ابلیمو
گروهش
شاهدخت
تیوب
مخاطبی
ریزان
۲۲۰۰
##ods
مودبانه
تشعشع
طارق
Machine
CI
IQ
حرا
خنجر
ولا
درپایان
برغم
ایزی
ماکز
پسوری
احد
پروپا
شمارد
گرفتی
نوربرگ
شاهدش
اسنو
فرصتهای
نکاح
فیوژن
بازداشتی
لافت
برمیگردد
سورنا
کوشیده
سولز
پاتری
Electron
نتیجتا
Ca
Uber
text
نتور
##پخش
همور
بیوتی
##نیج
نظایر
راهروی
اتاقم
مجبوریم
هشداردهنده
غافلگیری
PCR
بیابیم
اسکندری
شیمیايی
##دریج
لیفان
کبریت
موثقی
هندوراس
ضدان
عرفی
غوغ
موریت
##یدس
ایگل
اخم
##شدگی
##ona
پاران
سفرهایی
نرمش
پرسن
جوانترین
درکش
بلوکه
متعلقات
هیدروژ
پستانک
بنشینیم
موتورسواری
Messages
مزخرف
حرکاتی
Ig
VIP
حری
دویل
شغال
##سیته
سرمان
قرارهای
دانوب
##وتک
سوخو
بلبل
پاسدار
دوستای
امپلی
بایک
##emy
##vert
۴۲۵
دوشیزه
پايیز
محاکم
بوينوس
مظنونین
Content
محتواهایی
پزند
زرافه
service
پانکراس
منچستریونایتد
Ook
##طاط
##mit
##۶۶
##Bl
##ینسکی
##یزیکی
کارما
##افات
دورود
##ority
ازادکار
سیمکارت
##وفروش
پاوه
کمبودی
Download
##bnb
Mont
VGA
##پینا
##خونی
توکل
##هاج
بیگن
مقبول
ادراکی
وجودشان
موتوره
پولک
them
الممالک
مانیف
Robert
١٣٩٩
چسبانده
Storage
خونسردی
اسفراین
مصنوعات
غیاث
ناپیوسته
Fu
غرض
##پلا
مواصل
بیگل
##ماخر
ترنر
پیشینیان
تهش
تيود
بواسیر
گماشت
متمول
##ours
شجاعانه
هیپنوت
تفهیم
مکران
چوک
##دقیقه
افشانی
کلکسیونی
حمامی
بیراه
تابحال
##oun
خسارتی
##aking
گزند
بیزار
۱۸۹۲
Allo
ریستارت
Dynamic
اتوپایلوت
بکاهند
PR
SW
ثریا
عاص
##AX
بیع
نیمایی
ونوس
انحرافی
نوبتی
۱۳۰۳
هارولد
۱۸۶۷
Desktop
رزماری
##ference
پیزا
نابسامانی
Ber
Bird
Eth
MO
کورک
##شل
##خرید
##ging
فرشید
قراراست
نظرت
زیگ
پرسم
##کتاب
##باشان
اورب
تاثیرپذیری
مارینا
ذهنشان
میگویم
سرمقاله
بلاگر
شنیدید
غافلگیرکننده
غیرخطی
کوسن
میبای
نوبیا
شلوارهای
Thund
مدرسان
لیبرالیسم
رومانیایی
تینک
انفورماتیک
G8
Mob
Sem
عجم
۸۴۰
##يیت
انفعال
روها
هاگ
محق
ابگیر
##کتوز
کسبه
##مدیر
اضط
ببینین
بالاتنه
البرتا
حصیر
۱۸۶۸
کراوات
Gaming
530
جویس
مکار
چینگ
##رشته
اندیم
ناگاه
خانواد
جوانانی
##ersion
انزال
غیرحرفه
فیزیکدانان
اونتادور
ابوسعید
فاشیسم
170
ass
post
بامیان
بریستول
##وردز
منتج
تعم
##نانس
مستاج
##ولوگ
گذاشتید
وابستگان
چسبناک
##وفیلی
برومند
ناکاموتو
Atom
Times
تذکره
iTunes
فلت
نکا
##شرکت
##خشی
کارپلی
خواف
افش
##لوکس
وقایعی
همانطوری
داخله
پاداشی
راحتتر
##ella
پرکردن
##درصدی
GoPro
play
بخوابد
LC
ننم
##۳۸
درپ
همبند
##اریک
دیکن
معز
مقعدی
جهل
راهگشا
بخشودگی
رایکونن
ایمپ
خاصه
لیام
کیج
۲۳۰۰
تعمیراتی
رنگر
صیقلی
بلغاری
دزدگیر
شاگردانش
تفتیش
سیه
برجی
سرپناه
پشتش
میلانی
متعالی
##uts
اعدادی
انبارداری
بازگردید
فاشیست
فتحی
صیفی
Company
معجون
##تیمور
اشعارش
هزارتومان
ذراتی
وینی
##فاهم
##vis
##HC
امال
##وموشن
مسولیت
ادمایی
پیپ
صورتتان
##ایشه
رمض
امپرسیون
نتوانستم
پالایشگاهی
بغدادی
دروغگو
1998
کوهنورد
سفالگری
مادربردهای
دبلیودبلیويی
سغدی
لگاری
۵۸۰
##نات
اجی
باربی
ارتجاعی
کاناپه
ضدزنگ
##uth
بوکر
کروک
کرومی
Head
برانگیختن
اسیران
when
پلوسی
فایننشال
اسپایدرمن
جاودانگی
IOS
جبال
لاند
##UC
##ولوی
الشی
تنظ
##وسو
خرازی
بلخی
##راتوری
رستمی
صداپیشه
ونیزی
خسروش
بتدریج
اسلایدر
بلااستفاده
پاتایا
رهنمود
Social
اخرالزمان
تفاضل
##انتخابات
Oct
بلف
١٤
یوم
##چند
بازد
قرارگرفت
مقوا
بدنیا
شوکت
خریدوفروش
خطیر
یادب
کودهای
فناوریهای
##amily
پایتان
دونات
نرون
۸۰۸
1600
2500
ساترا
نذر
لايوس
Hill
زجر
سستی
لبریز
وزی
##فیل
##حمه
کردان
موزام
دوا
##گانگ
##لوژی
نورگیر
وقته
بکشان
لطیفی
نکش
۲۱۶۰
مریضی
الجزای
هوادارانش
توسعهافته
سلماس
واگیردار
4S
Fant
چاهی
##Sense
##bot
##غزه
رابه
##شترین
تویس
الین
الوا
مشقت
مرودشت
بایدو
بینه
بارشی
قسطی
##غانستان
نیکوکار
درنزدیکی
سرمربیگری
قزلباش
Set
sl
۹۳۰
##چان
ایول
منات
زمانبر
خریدش
ساختمانهای
یونیزه
دماسنج
##ident
خطوطی
سولفید
##aily
بخصوصی
دیمیتری
1997
هیپوک
##لاطم
طالبانی
A2
Learning
اتا
فروبست
برگهای
انتشارش
مکانیزمی
نیکسون
سوربن
بویینگ
دیزایر
##ector
کریستف
صبرانه
حبابی
بچرخد
Broad
گوتنبرگ
سوش
غله
میبد
همخوان
دیاز
پایکوبی
نیجر
##oto
لپه
ولگا
۲۱۲
۲۱۴
خیرخواهانه
ضخامتی
بهشهر
SpaceX
معذرت
vis
الاح
##gr
فرجی
متکل
رسولی
یادگرفت
##سونیک
جانز
حرفا
مگنت
مسافرخانه
الزمان
Airbnb
صیادی
فرهیخته
market
83
Ni
PRO
SR
جده
لجر
ننگ
گرافی
بریل
امراض
بیاین
دستمایه
دانته
نامعتبر
هنگامه
پژوهی
پرتگاه
سرپرستان
تروا
۱۸۴۸
شجره
Ultimate
مکلارن
ترانزیستورها
##خوابی
Computer
##يد
##Fl
##الیست
همسال
روه
##بانوی
تایکان
دوستتان
وسواسی
بشوم
سودای
مخفیگاه
سناتورهای
استیکرهای
Coin
فرگوسن
سرلوحه
بتی
دکان
##bon
اوتو
بزنین
غیرب
سراشیبی
اکتسابی
مینای
اضطرابی
کاندیداها
فیروزابادی
سرسختانه
##ING
واداشت
NVMe
CMS
Kill
فایند
##فیت
##UD
همرنگ
##سیونی
محج
چندصد
دانشور
سطوحی
شرحی
درامدش
زیستند
##ayout
دیرکرد
##وشنر
مینسک
##ries
الاغ
بهمنی
پسرانش
دستبندهای
نابرابر
ژاندارمری
F2
source
حشد
##سوزی
##طا
##rite
بابیان
گوایدو
##شمام
طرحواره
ریور
تایپه
##رخوانده
۱۸۳۰
##فعلی
مراجعت
اسمبلی
بیتل
صاحبش
سلطانیه
پریشی
اوازهای
الفاظ
Mario
استامینوفن
اندیمشک
330
Tod
وگا
باع
بیلیون
##مینا
گردوی
علتی
کامبت
استانبولی
دادنش
اسپکتر
فرمانداران
تدبیری
##amm
۲۲۴
##خواهان
ویلاهای
چهلمین
##izu
گردانند
##awn
پنداشته
طاهره
فلوجه
ایستادند
راهروهای
توییچ
ثروتی
GE
Ren
VD
قناعت
لوری
لستر
لودر
##زایند
##fit
دويو
متج
##وتری
چندسال
سامانیان
تابستون
نبش
فنول
125
پرچمدارهای
تایلر
مروان
Creative
Hang
رطوب
فیا
ناطق
گاند
##طبع
##ball
##پیک
##MO
امول
روزامد
بنو
##ites
اسپایک
تکنو
1980
پانچ
۲۸۵
مکزیکو
فتق
تابلوها
هانری
فمینیستی
هولوگرافیک
Entertainment
خشایارشا
افراسیاب
C5
Focus
V12
شاند
هگل
##گات
##حانی
##Watch
النه
مریدان
تنومند
پرتن
تباهی
فروکتوز
شیپ
واحده
رانر
خوانم
راهنماهای
سورن
Travel
پاشش
فریدمن
موزیسین
Icon
local
شیت
##یو
کهیر
استشمام
##زارها
مانورهای
اخرت
کانر
مفروض
##نزو
همسرشان
سیرا
##زرگ
مداوا
کولون
Dep
##inder
اندونزیایی
پنجاهمین
پهپادی
کمپرسورهای
Intellig
مواصلاتی
کپس
##oin
ایوانی
موهایی
ترودو
اسکیل
سرشت
گردنی
تقلا
مایلید
چونگ
وضعی
سنسورهایی
##انگیز
کمپینگ
اشکارسازی
Alpha
سیگارهای
ترازنامه
۱۸۷۶
ترانزیتی
نافرمانی
Rub
sk
قلو
##ias
##ونما
کارتل
فرنگ
مقید
##ارتری
نمد
مشتی
جزم
تریسی
درونم
ولادت
سويز
##ودرمانی
اسکارلت
التحریر
راهنمایان
نماوا
قالیچه
فاحشی
خاویار
وویجر
BB
If
Tap
طارم
##Th
دوت
اندور
نسک
دانشسرای
زبانزد
تکلی
برخیز
درامدن
مالایی
البسه
۲۲۶
کارکنانش
ناپسند
Product
رنجش
کوششی
انفجارها
قاچاقچی
##aze
بخوابم
بخواید
دسیسه
H1
شوه
##نکو
کردار
ایگور
یاک
بیاندیش
داشتین
بینا
نمایم
پرشمار
عنوانش
کلک
ارزشهای
محمدشاه
هشتی
روبن
سیدال
str
Experience
##actor
ندادم
راندند
پرسیدیم
Notification
بیافزاید
متبوعش
Dim
Jan
زدی
پالی
##FET
تعمید
صدقه
ابزارالات
فلاتر
تسنیم
معاونین
مشغولند
##ایرن
ترجیحی
##ized
form
۱۸۸۱
شمایلی
مناظری
اریانا
روانکاوی
Gate
git
oper
##Go
مشام
##ارتباط
فردریش
##omy
ماما
چاپگرهای
کپچر
کوکايین
برونش
پايول
گردانندگان
Services
گوانتان
هجدهمین
خوشبینانه
مفا
##کنندگانی
کمه
نشناس
گوهای
دولوپر
##گهی
چهارباغ
ملتی
سلین
حسابداران
تفری
اثارشان
بروزرسان
نکوهش
ورزند
مورینیو
کمپوست
##وپروتيین
شهرتش
تندروی
معلومات
۱۸۹۱
گاومی
کویین
Create
Canon
موتورسوار
main
خدار
دنگ
مکی
نچسب
کاي
##ration
##پسون
##انیست
افندی
ادز
بناهایی
##ردهی
ظرفیتهای
توزیعی
بابای
واریانس
مرجعیت
رینولد
هرويین
نفهمیدم
غیراوپک
بوندسلیگا
الجزایری
NI
Sat
شازده
لژ
موردتوجه
قابی
افراز
کلارا
ساچ
ناگواری
نموداری
جیانگ
مفع
دریاهای
بشیر
##انتس
##نشینان
دستورالعملی
۱۸۸۴
میدیدم
تیسفون
موزامبیک
960
CX
GA
M10
Os
جبار
عایشه
##uz
##ایزر
هاک
همراهانش
کمکم
##امدن
##itz
رانندگانی
##پدیا
استادش
ناپولی
ونوم
هفدهمین
Square
باسواد
بینالمل
خسروشاهی
TT
UP
##ken
##الری
##ولاری
سالنامه
فراب
گرش
على
دنور
تخریبی
##وپدی
۲۶۵
عدلیه
اکسیداتیو
پایدارتر
کریستینا
ازانجایی
بدخشان
جمشیدی
Nest
U11
نپرس
##بله
سرعین
دورگه
پایا
شیلا
پژوهان
##اخانی
##شونو
##ison
مورف
کرمانشاهی
رویکردها
سیراب
خوارج
Heart
##ERT
تناسبی
##ategy
تهماسب
PT
رینو
##وکل
##شایر
##اهلی
معراج
ماکرون
ادرسی
نیوه
##بریم
شیو
##وبیک
مسیج
نیترو
##ittle
دستمزدها
اضطرار
CU
DO
HC
Love
لارستان
##صول
##FP
##Fone
بهادر
##گرین
##میکرو
ادله
چهارت
بالطبع
تصویرگری
##iti
فایبرگ
ناتالی
Short
رشیدی
۱۸۸۷
۱۸۷۸
۷۶۸
Modern
گلادیاتور
Cache
Doom
T8
Way
کتو
##aur
##غداد
##۳۷
##ستد
مقاط
ادون
پرمیوم
دورهک
والو
گذشتند
مونسان
Information
##ango
لجستیکی
چاوشی
know
Bad
CA
Talk
WP
##زیم
##rum
##يات
میماند
بگویی
مبنایی
اکسیر
فریمن
ماجراجو
پیروانش
گزینشی
نوزدهمین
نمیدهد
Azure
مجارستانی
پانسمان
Fly
Tour
حلیم
بهشان
##قیلی
کشو
علنا
واگیر
##icle
سفیدرنگ
##chain
تعمیرکاران
الگوهایی
زخمیان
پاشید
فیتز
Navi
پریمیر
ماکزیمم
پسوریازیس
Dash
تارا
وگفت
۵۱۰
##Time
برفراز
##امای
راشد
تومیت
الکام
شوماخر
چندمین
خانات
جانگ
##ابلانکا
##alt
مرکزوار
مشابهت
بستم
دستورعمل
لایپزی
##شونده
سنجاب
جوشانده
شناگر
وینتر
مارتا
اندیشکده
برانگیزترین
پیتز
ext
بیاموزیم
CNN
پوپولی
برابوس
220
الماسی
نظراتی
هیث
همینگوی
اسمک
دومینیک
۳۱۵
گزافی
بمانم
##range
Gener
اورتون
application
ترومب
بیرمنگام
نيوکلاسیک
KPI
گین
##صن
##da
##va
##امریک
کنراد
دوو
##ماش
اصله
نشانگان
##inem
برخوردها
عکا
جانبداری
۱۸۸۲
فیزیولوژیک
CDC
ایووا
مارکسیستی
بالفعل
Den
خاين
##GT
برطبق
منهای
بیبی
هیون
کوين
خریدند
بانان
حرفم
زنون
خوابش
بزنن
فیچر
ضروریات
۲۷۰۰
هیروشیما
ابراهه
بلندپروازی
وایلد
استعدادیابی
فیلتراسیون
لایپزیگ
4a
نثار
باقل
##سیستم
متل
گرت
اتوک
اقاخان
واردشده
تراپی
صداپیشگی
عطرها
نایک
##ramework
##وجهی
Final
هیپنوتیزم
Fal
GN
some
فاستر
##43
##ih
هایما
##اتوار
سالوادور
معاص
ویچ
میانسالی
طبیب
تخیلات
اسپاسم
تاکستان
مرورگری
##uring
۲۳۲
##sey
##ebook
۸۸۸
فضاپیمایی
عابرین
بازجويی
##۵۵
##ij
توامان
کمپلکس
مجلد
##لوف
اغما
اقدامهای
لوفت
خلاصی
گرمسار
لپس
استراتژیست
بادامی
میکشید
اقلامی
نانوشته
فومن
Two
بافندگی
نگفتم
LPDDR4
pdf
تیزی
سلاحی
وگان
پگ
راغب
##اسری
شوقی
بازیباز
رودسر
جیان
##ros
کاربردپذیری
ابتدايی
تسبیح
بورگو
فولادهای
فیصل
بایزید
مطلقه
میرزای
ابشارها
براینکه
##خدمت
Boost
سیسمونی
OR
VO
١٠٠
اخته
ناشای
##رمارک
اورنده
نارنگی
حکمتی
اهداء
بنویسی
ادمیان
IO
شبان
نیتیو
پسی
##الع
خوابه
محوله
نظرمان
دانشجوهای
کلور
اسپای
فریبا
کوبریک
اطرافیانش
ابروها
پروژسترون
ناظری
بیافرین
گوسفندی
ملحفه
داکیومنت
FL
SX
Ven
##ced
توا
مننژ
##اقضی
سروک
موسمی
ریاحی
۲۱۸
گویشی
مخاطبانتان
گنجد
##endo
مجروحان
بدافزارهای
لنگرود
اوساکا
Enterprise
HSE
پرافتخارترین
Rift
X50
لیا
##رفتی
##خلی
دیوانی
دوساله
رسا
##صدا
رونوشت
امیدها
قدرتمندتری
تونلی
افریقايی
یخچالی
المث
اسلوموشن
لوکال
اولیا
واژینال
ازمونی
ماینکرفت
تخلص
خدیجه
cor
خبی
ضریح
نزار
##mos
##امعی
تران
کشه
نامفهوم
سایبان
وقتها
مقرنس
موشکاف
کتف
۳۳۵
لیتیومی
زندگیمان
Michael
اخترفیزیک
دیزی
##ستوی
تاوان
##هاوس
العد
ارضای
بخوری
اپر
اطفای
بلادر
دوماه
کارتخوان
درماندگی
عواید
امیدهای
مینویس
ریاضیاتی
شکنندگی
گچبری
##ysis
Secure
کنسرواتوار
IGTV
دایانا
73
Lat
file
pack
صابر
وولف
کاله
##ینگر
استرسی
رايول
ترابی
ابگیری
کلنجار
خدماتش
مواج
105
کریتوس
سگمنت
only
ISS
1395
دلیجان
رودریگز
NAS
Pace
SATA
شگرد
شلم
استایلی
هممون
ایچ
##ادهی
مرض
پرشین
اخوندی
انسانهای
دوستانشان
اطمینانی
مسیل
هجومی
فشردگی
AMP
Anim
Outlook
ستودنی
بیسکویت
بلاعوض
Bel
IEE
LM
شیدا
وپز
کولا
##زمن
##97
##ازمان
موع
منجی
##ومون
##الیان
دلبر
دیدبان
اعتص
کالکشن
ابزارک
امورات
گذارانی
حواری
۲۱۶
##agement
سولار
شعبده
Meizu
گشودند
عبدالرحمان
Memory
امینواس
ساروج
اغاجاری
hand
واهی
کهولت
نیاد
بنرهای
ناود
##ince
اوروس
دوستشان
##esc
لیان
بخواهی
ریزم
خانمها
Style
خورشیدگرفتگی
جغد
کاراکاس
ناشنوایان
گذراندند
قشلاق
۱۸۷۳
لرزاند
کاترینا
مرهون
GFXBench
سانچز
Capt
mRNA
نورت
میافت
باهنر
مرام
سینوسی
بوکمارک
Stick
1280
اختلالاتی
##ایمنی
کارامدترین
استحمام
شلنگ
تفنگدار
باسلام
اسماعیلیان
مپنا
##duction
برچیدن
گزیدند
زیرکانه
حوزە
کوادکوپتر
گسیخته
every
عدن
فکتور
مونا
مادل
ننو
وپ
##سنگ
انارش
اشکان
ارتوپدی
##ental
۲۸۰۰
##aby
2560
میشدند
CNBC
ناارام
یعقوبی
بلامانع
550
R9
Ts
Tower
شراي
طه
##جون
##قرار
##ژاد
##اترو
هاوانا
بیسم
سرجیو
جمادی
راهبه
فروشندگی
##پیو
بحر
زیبایش
مناسک
همزن
فینچر
##اذی
ببنید
نذری
مانتوی
درشمال
Halo
81
EL
Pict
day
لکس
ومن
واندر
ژيوف
##ker
روزرسان
بدتری
چندجانبه
گوگن
داوودی
محصولش
وبیش
۱۲۵۰
اخیرش
پذیرنده
خوشامد
هفتگانه
متواری
مهربون
خروش
الیگود
گرانول
میتوانم
ساحت
ابریزش
انحطاط
رفلاکس
نگذشت
گاگا
۶۱۵
میبیند
##ernet
متضمن
Files
کاریزماتیک
FIFA
Counter
watchOS
اتاتورک
APS
TED
Tok
page
##عریف
##ضمه
##fox
##ورپ
ارجا
اندرز
نشدید
##اکسی
پراهمیت
##داوی
شورلت
موتوراس
دستورکار
نجاری
ناخدا
خالکوبی
ناشنوا
معطلی
پولیتزر
Source
اشته
##گینی
##Com
باسک
سربر
مرثیه
بدور
ادواری
نیلی
همراهم
##نترا
جنگهای
طرفانه
فکرم
خودمم
هلالی
##izer
کارگرانی
کازینو
شکیبایی
##roller
دیابلو
یاتاقان
Bre
Dem
Tri
یشت
۶۱۰
درمات
امونیوم
##اطت
پرندگانی
ماهیتی
خریدها
مکیدن
حقایقی
شناختم
عزا
همکارانتان
استراباد
طرزی
##iance
رهنمون
شاکیان
##VIDIA
مورتال
DDoS
اسپهبد
Vib
cm
تروت
ضی
##gan
##۸۴
##ورزی
استتار
توتون
ایوا
بیبر
کمکش
عملکردها
موتورخانه
چالشهای
۳۲۹
اپدیتی
##يیدها
مهاجمین
زیباتری
خداحافظ
نگریست
الامکان
صلواتی
Lenovo
میبایست
Da
Echo
how
چدن
##پارت
دراک
##یزگی
بخون
##اکتور
اپراتوری
فیله
بالتیمور
سیانوژن
سبلان
سنجه
اورال
افتی
نبشی
گرانترین
بولینگ
ازموده
هیرکانی
الکترودهای
کنکاش
باواریایی
الومینیم
فلامینگو
حواستون
گلشیری
رفراندوم
5X
FR
GC
PET
خامی
##GS
ترف
زمانش
نماها
یادمون
گذاریهای
##iter
باختن
وصال
اگزیست
Enc
شاخک
جانورانی
فخری
Capital
شاهرودی
موزاییک
Gmail
Ly
count
ثق
ليوپ
پپسی
##دخت
مصباح
##بايی
نخوان
گزارشاتی
اضلاع
صدرا
گیرن
یافتم
۱۸۴۰
اکسس
ادمک
سرخپوشان
شغلش
real
کويینزلند
NT
غور
چلی
##ويی
درایت
کارند
الارض
ابکشی
هزارم
تیموتی
چهارمی
غذاساز
##ico
امارگیری
اوریجین
ولگرد
تکرارش
بادبان
##نظری
۱۸۷۵
بپوشند
یاسین
انتزاع
غیرمتعارف
جاویدان
6P
NVIDIA
ent
point
تگرا
فله
گونز
##IL
##صلاح
تولی
کنگی
بازشدن
اجابت
##باشد
بردارم
جنگو
گرانیت
جویبار
القاء
##annel
مايوي
خرافات
بلادرنگ
دوده
غرش
##برن
تمکین
کلارد
پشتو
موبایلش
تابو
مگن
تماش
البلا
زمرد
بایستند
نروند
گنبدهای
Evil
سکوها
غلتک
North
بوین
##88
##۶۴
##ایدها
##سترا
همدل
امپد
پیشامد
ادوردز
تنم
##اپوری
تیمچه
##واها
اورانوس
پردازم
سلنیوم
سومری
جستجویی
۳۰۶
برگزیت
پیچیدن
گرافیتی
##ilot
کفشی
##امونت
فایبر
مقدسات
واگنر
پندارند
Asp
ساپورت
ابخوست
گیبسون
غواصان
6S
OP
Rh
تکس
جباری
خاردار
لنجان
گتو
##فلو
ادرین
انجلو
دلالی
زیرسازی
ترکستان
اکورا
محمدزاده
عمرشان
##لینا
بزرگترها
تیزری
دویچه
باشکوهی
قمرهای
بالدوین
موشکافانه
Gall
James
Que
TFT
Vega
قاصد
##کمی
##کوک
موتس
السال
ترمیمی
اوستی
نمى
غیرانسانی
خوششان
ویندوزفونی
وزنش
درختانی
مونوکسید
##وذر
کورنینگ
##aven
پدهای
جانشینان
Exp
۴۹۰
کالباس
block
South
Bio
FX
tech
شازند
##ظرف
تاشکند
دلبند
کلیر
لوکی
مندید
طراز
Andre
عبدالب
سایلنت
رطوبتی
Vel
نانی
##set
##oid
سرمی
مرق
ورنر
##aces
نظیرش
##انتظار
##ili
شناوری
لاتاری
سواپ
۱۸۶۵
گوگوریو
اسپیرز
##حمدخان
غنچه
B12
ضربی
##اول
##اشیه
##ارس
##امر
سرق
مانوی
مارکی
امدهای
رانا
متفاوته
شدیدتری
۲۱۷
اتیل
اسلم
رقصیدن
موهایش
Level
صیقل
متالیک
Neo
بیلیارد
پروپاگ
dep
جمی
علفی
مولا
کارشکنی
تاکی
خوشتون
##وماتیک
اورگان
شاو
اطرافم
##oose
##EST
باتومی
1995
منچست
اسفالته
PSA
بپیوندید
Guard
عودت
##comm
اکریلیک
خدان
##۸۹
##force
##ونال
##وزو
##وتس
کوخرد
متحیر
تراکت
اطرافمان
عصای
واکسنی
Rep
##nection
Chat
مودب
بذارین
گویشوران
تبعیدی
۱۲۹۰
Record
مشایخی
مشکوکی
IEEE
CE
mem
##oz
بادر
اعلا
پروهای
رودها
کارتاژ
واحدهایی
نکنین
کورکور
رزولوشنی
میراثی
۳۳۰۰
نتوانستیم
there
##ails
فلويور
کرانچ
ECU
اوربیتال
گاومیش
Jul
Roll
opt
تاتو
هادر
##۳۹
موتی
##وزان
کانتور
##ساخ
تویین
امدیم
شعاری
اظهاراتی
۱۷۱
۲۴۷
##ilt
ویتا
مونیکا
تیکت
ورشکست
نخلستان
اریزو
سوپرشارژر
کلاردشت
جیره
لوزه
بابان
معاو
تنت
شمایی
مراوده
##وفیز
سلولز
بابکان
نرفتن
پورتلند
پذیرفتنی
اسکراب
بنگریم
هرمس
زوایا
مکنزی
ملایمی
استدلالی
گوانتانامو
موعظه
منچسترسیتی
ip
بضا
خویی
چمد
۷۸۰
##سرویس
##صریه
امانی
##نیان
بردهای
##انسر
یافتنی
تاسیساتی
فرموده
##سترها
فاینانس
سرتاسری
برمید
فوریتی
سلوک
Press
کازابلانکا
سرزندگی
گوته
عبدالعظیم
انصافا
تقاضاهای
##ified
تعصبات
اسطوخود
بااستعداد
IF
Jun
non
ژيو
##61
##ابند
عمومیت
سوای
بگری
نیازهایی
بلدر
جوامعی
رهگذ
ورودش
بازاریان
##iving
ونیم
کلاهبرداران
الحسین
هارپر
Imp
اسپرینگ
Metal
ابوموسی
Moon
بوهم
Developer
ژايو
باتل
ویار
تمپ
دلیر
بارو
شبک
ناوهای
فضلی
سنن
##ولیز
گازطبیعی
روندها
خواستی
دایم
مرسوله
هیدروکسید
مهمانداران
بازخوردی
اساتیدی
1396
جادوگران
اشامیدن
دیوونه
هموطن
مزدک
Die
Men
Op
SLS
fin
help
##Re
##400
##ترش
ارمین
ارعاب
بدونه
صفایی
وزرات
روستايیان
##خشک
##lease
استانداردهایی
##ami
چیستی
ریزپردازنده
پیمايی
کاتب
ارایشگر
۱۸۸۳
A51
##aterial
مدرنیسم
بطلمیوس
بینالمللی
Sym
ذکا
شاب
عقیلی
چنگی
##جاتی
##قش
میسی
میکی
##ازار
اسامه
ویچر
دانشگاههای
شمارو
کوته
سیمپسون
کامپیوترتان
واسم
بافتنی
GTA
فضاپیماها
روترها
اپیزودهای
خوشنام
پروپاقر
پربازده
هشیاری
Kr
فجی
ژوست
##53
میکش
باست
##ناو
مراعات
ممفیس
##نتیک
سودجویان
مهرجویی
شخصیتهای
پلاسکو
دومینی
بایوس
اتیش
کمبودها
APU
ریبوت
iMac
Marketing
##iddle
اوکلاه
ترمودینامیک
AK
Hom
task
۹۲۰
##کورت
میرک
همرا
همنوع
##هاء
النترا
بیسک
##اردن
اجزایی
نیازه
شنوا
وبم
نمودیم
ملون
باورپذیر
سیدمحمد
##ira
سوروس
منفور
فرسنگ
405
۱۸۶۳
۱۸۶۶
Instit
الکترودها
زدودن
جفرسون
هجمه
ژيوم
##گى
اییم
##برابر
تحویلی
نداند
پروکسی
گردنش
##یفگی
محبوبش
فیچ
۲۳۹
Rev
باکتریال
تقلیدی
GDDR5
بدشانسی
Bat
لوزی
ورو
چرو
##صم
تاجی
التون
شوپن
##درون
بخشهایی
کلنل
تلفاتی
##ito
پاکیزگی
بورلی
##otal
فیوز
زمخت
گوشتخوار
##وجیه
۴۳۵
Energy
کاروانس
AirP
میگفتن
رپتور
پاستوریزه
based
bit
جرد
پبل
##براسیون
##۷۶
ازیک
امویان
بیولوژی
ابگرفتگی
##داش
سوک
بارک
زمینهای
زیرانداز
غیرار
شیيی
کاشم
لطفعلی
ماجراها
اصطلاحاتی
فهمیدند
نگینی
سیگنالی
منوچه
پختگی
تاراج
اگوستوس
حايل
قصور
any
Creators
تفرش
بولیوار
فریلنسینگ
کالیفرنیایی
باواریا
Communication
جدانشدنی
کانسیلر
نیواورليان
رینولدز
بلدرچین
free
ملو
کوشنر
گاست
##dom
خواهانه
حمص
پستال
پدیداورد
عباسعلی
رابرتز
Setting
جزییاتی
هیولاها
ترانسفورماتور
معاوضه
med
شستا
##نیز
دراف
درشتی
بربری
##یموس
کارلس
ترحم
سامر
پارو
سراوان
مفرد
استخرها
رسانیده
دکارت
##پتوس
##arter
Deb
همجنسگرا
##enger
شاءالله
TN
##زایش
##ues
نمیفه
تولیدش
گیوه
##باوری
نهج
##شماره
##تانت
جزوی
##ربوط
تمرکزتان
همزاد
لینکد
عصا
Thom
اندیشمند
رکابزن
SPF
فراماسون
فجیره
سیناپس
نامطبوع
الیگودرز
اسطوخودوس
Mos
استایرن
برپ
متاد
##ومندی
جدیدتان
سوند
اخاذی
کرخه
میزها
##گذاشته
سنگهای
پوسترهای
ابیات
فیث
کرولا
دیتاست
content
ICO
غزالی
Systems
فندک
بازدارندگی
Ak
EN
Y7
وپا
##قبه
انجمنی
دلگرمی
بنگرید
میزکار
سایتش
ایمون
شروین
اروماتیک
##کیلومتری
درمانده
##inger
پلوتون
ویدیويی
دونستن
توپوگرافی
نیروگاههای
پراش
##covery
its
یگانگی
مانیفست
موتسارت
Cir
GX
Ku
di
hy
خودایمنی
بدعت
همانقدر
صدفی
علتش
پلمب
سیاهان
۲۲۹
داغستان
همکارانم
پالایشگاههای
##ants
میکايیل
جناحی
۱۸۶۹
مرموزی
مادربزرگش
کنکورد
مشایخ
۷۶۰
##لار
##انلو
بهاد
##روور
ایاص
مسقط
بخونین
##شیب
شوفاژ
چندتایی
##لویت
بارگزاری
خیبر
مدلینگ
شورایی
##ینگا
وساطت
کارتهای
کامپیوترهایی
##etooth
##igation
سرخوشی
سیلیکات
Edit
همجنسگرایان
##سلاو
server
ملوانان
Cyber
iMessage
Earth
فسا
##فک
اسعد
همینجوری
فردیس
رقاص
هوارد
موبدان
۱۸۱
##anding
نتوانستید
لیسه
پوزش
کاربلد
اسفندیاری
دریابید
##ography
Spectre
کمبوجیه
##شغله
Pur
ژیز
##xt
افرو
ادلب
شوال
میزنی
##پیون
جوندگان
##کروز
##itect
امیدبخش
ضرور
##oman
##asp
سینماگران
##طبیعه
نعل
زندگیتون
گاوها
محرمان
۱۸۷۹
League
گرینویچ
بقایی
انقباضات
##scape
network
درهرصورت
سلا
قعر
گشای
##اگرد
##پخت
##ارده
هاور
دويل
سرایان
##ایدار
شرکتهایی
جهنمی
تکست
مخاطبانی
مدارا
1960
متقاضیانی
سوپرک
پرسپکتیو
##astic
ساسان
##actory
شهروندانی
نشانگرهای
باکره
Cool
یادبودی
##جنسی
##anner
رخدادها
بوکسور
Reality
##ELL
١٣٩٨
رودررو
رمضانی
تویسرکان
Bell
number
حدید
خمر
شیبانی
عقیق
هروی
پط
پینو
الذ
بخونه
##مینه
##اتیان
ندیم
##انسن
دنیوی
ساینیج
مایونز
چشمام
دورانت
##وترش
##رتبط
لطیفه
ریزیم
##خواهند
درامر
##cean
احمداباد
مانیتورها
اومدیم
التزام
Disk
گندزدایی
ناسیونالیسم
اعیاد
تونستیم
اربابان
متخلص
دیرهنگام
اگزیستانسی
B6
Kore
Tro
vir
شبا
شپرد
قریش
پماد
۸۹۹
هموند
بیسیک
معوقه
پیشخدمت
##اندیشی
چندساله
سوخاری
اطلاعت
خطیب
نايین
کاربرانشان
##arge
دریاس
ایستگاهی
بیتلز
تومورها
۱۳۰۱
امیگا
دوزهای
ریاضت
پرمشغله
Select
بونسای
عبدالرحیم
گلپایگانی
بیفتید
AWS
پراستفاده
میوزیک
Bin
Dog
Fer
Fox
Nint
P3
استبد
امنا
ایرادهای
کلنی
ترکش
شمارمی
دستوراتی
دمپایی
##iffer
##thing
گرداننده
۱۴۰۴
##طبقه
فرخزاد
غیربومی
FS
RE
تترا
ظالم
عیان
لعل
##ves
##gress
##ختند
شوارت
خرمای
اورول
انتقادهایی
میشوم
العملی
##aging
افتادیم
استرالیای
متمایزی
##aste
نعوظ
دوزخ
پیانوی
ژلاتین
BYD
بضاعت
JD
بسرعت
کیلی
##ابطه
اراد
پیشوای
نشید
اقماری
پیداش
میزوری
فراطبیعی
##esent
شمارند
شمارنده
چاپلین
رعب
لایروبی
لیتیم
##eck
شهیدان
لیموترش
نایروبی
Associ
وهمچنین
مفسران
Bluetooth
TO
##code
##PR
خودجوش
##تیوس
اوباش
##جهان
##struct
##اظم
ویزاهای
ايرو
زرند
۱۸۶۱
رندرهایی
متالور
Resp
مینیمالیستی
وطنان
Mirror
MVP
Continu
ثلاث
رنگرزی
فایبرگلاس
Bey
ON
Wave
er
##۷۴
درانتخابات
خواید
توانیر
##درجه
شدنشان
بدونین
روشها
##گزگ
برخواهد
مترقی
مارکز
۱۸۲۰
وقتم
نفرو
سرخورده
ژنومی
دکوراتیو
هومر
پرکاری
ازتک
انترتینمنت
خودشیفته
نیویورکی
71
meth
انقد
توف
سالمندی
دیور
##برند
سرشناسی
مستع
جانشان
سروان
ویرایشی
جوید
عبدالملک
ثروتمندی
اسلوب
استرپت
حصیری
۷۷۷
پنداشت
میگرنی
افکنده
OIS
Son
لوان
##ناهای
##IR
املت
هاگو
بدرود
رویارو
گوار
گروهک
جزایری
یافتید
ریزگرد
بایو
##irm
پرفکت
Alien
هارمن
غذاخوردن
شامپوی
ZenFone
جاجیم
عجولانه
Nintendo
زیل
چام
##صفانه
##ستاد
##امینی
امض
##گرسیو
ورسا
گلشن
فناوران
##lean
تاکیدی
اسمبل
فرشاد
ویلموت
۷۷۰
۶۹۰
HPV
Transl
Privacy
Lumia
مظاهر
نیوکاسل
الثانی
پاچینو
تومیتوز
منوچهری
Great
مگی
##شتند
##گرگ
سال۱۳
تجدد
اهی
مستشار
ریچی
##کیلومتر
مادرت
##مرغ
##گذاریم
فنری
پیوندها
حیاتش
تاخیرهای
ارشیوی
ناهنجار
##attern
تبهکار
01
Ger
Language
١٦
باگی
##سیست
ایرت
دانشگاهها
نزدک
ریواس
##اشو
##پرستی
##head
دختره
نجار
##اوات
نوساز
مشروح
اریتره
اولیای
۱۸۷۷
مشتاقان
نمیتوانید
فلیکر
component
شیارهای
نمیکردم
ژولیوس
شهراورد
سمیت
قلا
پنان
ژولیت
الفت
بیشتره
راهم
##کتومی
اورامان
کنارشان
##atab
هندل
ایستند
فایلهای
انسوی
زیرساختهای
بذاره
متقبل
بچشید
دوقلوهای
تریلری
استبدادی
Aug
BOE
Zh
pop
تیب
قایقی
یارد
##دورف
اسراف
مرید
پرپیچ
گردباد
جنابع
صنعا
##وتیپ
مرزبانی
کلاوس
خمش
کوشا
Inf
##ضلعی
فلورسنت
رابینز
واترز
چانگان
نامتناهی
جنابعالی
سکن
ومی
گوران
##سنی
##شاید
##بش
##gg
##ازین
##اسد
پیانیست
دلخوری
سنبل
اکدی
تهاتر
گیرها
##گارا
ماندم
کفایتی
سیلوا
کروگر
طالع
فدرر
چرخی
product
رویاپردازی
زارعی
اردکانیان
برازنده
روماتیسم
چهارهسته
کامپوزیتی
کاشمر
Bud
Van
sim
wind
رنجی
کرافت
انوقت
ابوری
##اندند
امکانش
##نتینو
فراخور
##پرهای
اژدر
نوشند
پرتفوی
##emption
فاکتوری
لاتکس
فلاون
Backup
##brid
پردرامدترین
Xeon
صلوات
مظاهری
280
Bang
POS
لنج
یاتا
##lish
##DS
بامیه
##لیسی
بیاز
سربه
گفتید
جهانگردان
تکوین
207
##ويیک
پنلی
ابرامز
العین
محکمه
کورمک
فسف
فالکن
قاجاری
هارمونیک
Editor
باهاتون
۱۸۶۴
نیافتن
Index
زحمتی
Ess
PB
du
##ca
##یروز
الما
اسکوپ
صفه
هدفگذاری
مزید
##oma
پلازا
سرخپوست
خواندیم
واترمارک
انجاییکه
رادیويی
وگوها
been
میدونن
spec
America
##وپلاستی
حریص
ایاصوفیه
Hall
جرالد
نید
ونت
چنل
گوب
##جینگ
##met
##ique
بابر
استاین
##بیون
##کنید
مرسول
تنوعی
بخشنده
بارا
سبحانی
سلح
ببینن
۲۲۷
اشکودا
تمیزکاری
هلمز
هاردهای
بشنوم
هالک
ربکا
کشتارگاه
ماساژور
دورتادور
قویتر
Bor
لینگ
کفا
کایل
##جیر
##طیف
##38
##26
##ادوس
برمن
انپ
##فرید
پایم
اپلک
صدارت
قلمه
مشکلاتش
فلین
گرمسیر
دختربچه
کدامند
۲۳۴
بغرنج
tool
۳۶۰۰
##ova
بریزند
سارتر
لیموی
بولونیا
بگردد
Beach
سرودهای
نیایشگاه
GDDR6
Predator
home
##لفه
واشر
شرلی
##ويیدی
مدارات
اظهارنظری
حکومتش
تونر
عبدالناصر
سوراخی
##ief
اشکالاتی
باهدف
بلندگوها
should
رفرنس
فتوولت
پریسکوپ
رفقای
پرتنش
Human
MAC
Maker
Ram
قیس
ژنگ
##Data
انیس
منیف
نمیشن
##زدگی
ممد
صدمین
جذبی
دامداران
روزانهک
۲۹۵
جوشی
##ولتز
برگشتند
ملکشاه
حریفش
۱۸۶۲
اسماعیلیه
DisplayPort
resp
امپدانس
DX
بمدت
##ایران
انسل
##ختگان
البا
دوطرف
قرابت
سرج
روزجمعه
ترکه
جامپ
شروان
پیران
والای
عینکی
اسکورت
۲۳۷
فرانسویان
ردیفی
تالشی
انعام
##rome
نگرفتند
دریانوردان
بلعیده
پرچرب
گيورگ
محرمانگی
IE
PVC
ساکر
ضابط
۸۸۰
##کای
##lo
##ba
##Qu
##BG
میراژ
معبدی
سرراست
کویتی
اورلاند
##گلد
##orge
صدری
ویرگ
تویوتومی
##روفیل
رزون
بکشی
کلاچه
۴۰۴
سکاها
چاینا
پیرامونش
کالیبراسیون
پاپوا
غیرمرتبط
خواصی
اندیشد
کنسرتی
program
تاسوع
Contact
شاغلان
Keyboard
میزارم
مژده
William
دهاقان
تولیدمثل
لوکوموتیو
دیکنز
همسالان
Bul
R5
Ring
business
most
ps
رونی
وگ
##نبی
روزتان
اپنه
کوست
هواکش
سایرس
تراول
برجک
بازدیدی
##کشایر
۲۱۹
تيوریک
محوره
گزیند
طلبکار
پاورقی
پراکسید
اندرونی
چوگان
##USB
وثوق
مننژیت
language
عند
چلو
##OW
##TG
باتر
باسیل
تولیت
روسن
##انیومی
خودساخته
##نیوس
##وشکن
اوژن
گرهای
هیبت
واکه
دنیاهای
خاطرم
مبد
##جمع
##وینو
لندینگ
اتوبوسی
تياترهای
لاتینی
شکنند
۵۳۹
کمربندهای
1994
exe
Camp
پرسنلی
تنظیمی
مفاخر
ساچمه
موتوراسپرت
البلاغه
ابوریحان
61
Boom
CIA
Tar
##زات
##ازو
تاي
منشن
مرگی
##ینیون
غیرعل
چراغی
سویفت
اشتباها
عصمت
عبدالعلی
کلاهبردار
ماریجوان
جانباختگان
دیلمان
متابولیکی
##پیشگان
برانگیختگی
لشگر
Ze
action
person
und
تسل
سیره
نپوش
چنته
گولد
##گشای
##Ad
##lar
##خند
درارتباط
میوم
برانداز
ابس
اپگرید
نیچر
بردلی
اسیاتک
تفاله
پژم
پیچد
کفالت
فرزندانی
چشمتان
خلل
اسیدپاشی
خوشحالیم
۱۲۸۵
پراکسی
دگرباشان
فیلیپینی
شلغم
مروج
Beats
##untu
سولفوریک
Fallout
کهریزک
Jet
Py
bar
چاند
##یمر
هاج
داروساز
اشاراتی
ادوین
اجدادی
۲۰۳
کوارت
جنوا
سیاحت
##ولوف
قلابی
پژواک
دروغگویی
تیزرهای
ریختم
سلوکی
پندار
نویدبخش
مفتول
سمینارها
بلعیدن
Library
پراسترس
Personal
یوجین
Thunderb
under
سکور
شله
شخم
ووفر
گورو
##۱۰۰
##01
بهن
موندم
گیلی
مهمونی
لحیم
فلکه
موقوف
سکویی
خلافکار
thread
گمانم
نامیبیا
داوطلبانی
موریسون
سحرگاه
##yte
تراکمی
کوارتر
الرحمن
نگویید
check
مویرگ
ترفندی
cal
اودین
رادر
رینز
سجام
ظواه
چکی
سالش
مقوایی
اقناع
شنژن
نمیره
اساسین
جويل
پزشکتان
نبوی
دردسری
جایگاهش
فرمولی
ولوم
گیمیف
سرخوش
جامعە
زنگوله
حواسمان
Redemption
دربیاورد
صهیونیسم
event
مبرم
Horizon
کلمبیایی
فراساحلی
LDL
##مدیریت
یادبگیر
ناودانی
Aud
DA
لیما
ماله
پگاه
کتون
کراک
##van
##Le
##Be
##Mac
درایند
نیومن
مثه
ماجراهایی
سالیوان
لیزینگ
قواعدی
##مردانه
ترومن
میدادند
منبسط
ازسرگیری
ویلموتس
پنانگ
970
Safe
تلی
زیت
فاو
وزد
۰۲۱
##حیم
##Ar
##98
##انتی
المت
##نیگ
##وهاب
حدادی
ورطه
دولتها
ایدین
فقهای
مقابلش
معلمین
##urb
جورنال
کلمبو
Reddit
شالیز
صریحا
نمیتوانند
خوارزمشاه
Silver
اسلاوی
Gard
LX
هجو
ژاله
##GL
##ارمونیک
باتن
##ابلی
یکطرفه
ایذه
##دهید
##وته
ابهر
نهد
یادگیرنده
اعتلای
افتر
نخستی
##روفن
##rey
ابرسان
ابررسان
شمالگان
##حالا
اندازید
ادعاهایی
تنگستن
فرزندانمان
اکسپلویت
دفعاتی
def
react
ندانست
سورتمه
History
River
VOD
تذه
قصاب
##وفه
کارگروهی
متدها
سرخاب
رسن
احص
کلودی
نخر
مسترک
تکاب
شرارت
استاندارهای
بورژ
کفن
##سازمان
پرفرو
Adapt
Concept
سانتوس
مرگبارترین
غفوری
تناژ
میذارم
install
لوبیای
Care
H3
Old
Under
our
would
گنا
##off
مشگین
ابقا
تنشی
تنبور
دلب
گروس
عملگرهای
نفتا
اثرهای
حرفای
##esk
کالام
امریکاییان
کوتاهتر
کلاژ
ورزنه
۲۲۸
ins
##earn
ایزابل
زاییده
الاستیک
ترمزها
صیغه
RAID
ویمو
هاگوارتز
مرسولات
Peter
long
دت
پریان
درنده
کنا
سرخه
ویفر
ابکی
اجرت
نخوردن
##لسر
وزیرستان
زنبورد
سیندر
##وسیا
مولداوی
دونن
عصرانه
همونجا
موسساتی
نیتریک
سولانا
Club
پیازها
ببندیم
ادواردز
توربوی
جنایتکار
هموارتر
##phone
شمشیری
Solar
بدبینانه
اسقاط
تذهیب
بتاب
ژوپ
##فتم
فرمایند
قراد
پرون
گوچی
مانیت
غیرک
مخاص
صحابه
حرفها
استخری
##eline
ناخشن
۳۲۲
چسبند
Blood
##خودرو
امپریالیسم
Options
میوفته
کیفرخواست
تمثیل
ژیزمان
Bill
Count
now
sign
فوبیا
##شری
##هد
##log
##۵۶
##Hub
همجو
ایوی
هرن
کمالی
اصلیت
فیلمبردار
##اسیس
طبابت
فراست
انتظارها
شکستند
##eler
##انتین
میتوانست
##گزارش
هدررفت
نپایید
اعطاء
فیدل
##ارضایی
غزال
بازتعریف
عبیدالله
Future
Gi
مرف
##CH
##XL
روزگاران
عنبر
پروم
باروت
ترکمنی
پارامونت
هوپ
پوشانی
نوراف
پاوی
خیابانها
مندند
ناخوانده
بوچ
منصوریان
سوريال
میکرده
##oga
ابهت
کاتالان
خوشنویس
CNG
بدرقه
اپارتاید
دلاوری
تتلو
روراست
باتیستا
Coll
Mill
Ok
R1
Sant
Send
T2
کادری
گوز
ابسه
##وبازی
شنوم
کلاهی
##ینیوس
کامکار
مکری
سوییت
پیراه
##وسیتی
##other
بخارپز
فشانی
##ears
Trust
بتونین
قفقازی
اکراه
تولستوی
دوقلوها
میذاره
شايبه
Dan
رامی
رفی
##بوس
باورتان
##کسن
شبها
سايوپ
شهداد
رفتگی
منظوم
ملغی
علیپور
گیگابیتی
خونم
پیچش
پیچند
اتحادی
مقرری
استراتژیکی
میکروگرم
نفوذپذیری
ارسنیک
ترمو
Lee
سیتوکین
کاراگاهی
ولفگانگ
دیاگرام
لینکداین
850
want
موران
نینا
##بعدی
##طحی
##dy
##ماک
ابوح
مهناز
نقرس
نخور
مخملی
مایکت
ریفر
نورنبرگ
سلامی
ضراب
ماهیگیران
صداش
سبزرنگ
جبريیل
1800
نابودگر
تارگت
بیهقی
موریانه
زیردستان
##iction
ارتیست
شمیرانات
زکریا
رفلکس
همجواری
Crypt
قاد
##fish
##یدانی
امیه
##هافت
دستها
متشکر
##ومانی
قرارمی
اترو
پرادش
نووا
شاهکاری
استانها
##ales
مغتن
نیمار
منظورش
خیابانهای
##مين
کلاستر
کارمندانتان
استودیوز
##عبدالله
نوسانی
تندتر
جبرانی
دربغداد
زادروز
context
پلیمرها
بخوابند
Firefox
یوکاری
رالینز
قضایا
ساردین
پرهیجان
کبیسه
کورکورانه
باتلر
RED
سماق
صراف
لوران
##تک
##کرک
##viron
##خواسته
##fore
##وریتی
انظار
##تیشن
سالنی
دوان
اسلی
اموزگاران
روستاهایی
درستش
سفیدپوستان
فرزندم
مینیاپ
حدیثی
سناتورها
الکال
۱۸۷۴
پتروناس
Bright
جوزپه
واپاشی
اوانگارد
مددجویان
##lines
into
Private
قویترین
Tools
ابرنواختر
ویسکوزیته
مايويیست
By
CAT
DOS
Local
Po
look
جايی
دکو
##پیست
##ارست
کنگان
دستبرد
مدفن
##وتال
شوشتری
تنیدگی
هزارو
خطابه
ناشدنی
کوههای
پرسرو
رسانیم
نیکوکاری
مداوای
بازگردانند
##کینسون
بنگالی
گرگور
داکوتای
مونتاژی
استیکرها
گرامری
پودرهای
image
used
Securities
پروپاقرص
Ill
J7
خاقان
شفیع
##O2
میگذارند
مداح
بدگ
اپاند
##اصلی
نیابد
سولی
منتفع
خیالات
بگذرید
شارجه
دمیده
سیاهپوستان
امتیازها
اعتراضاتی
خالقان
##rait
خواربار
باهات
##peed
ترفندهایی
تروریستها
دوسویه
##flix
انالیتیکا
##وپلاسم
کارکشته
هانوفر
EPA
JBL
PA
map
زولا
لبان
یارو
##رتی
##گیش
##cer
##craft
##Tr
##الف
ایون
منافق
سهیلی
اکیدا
نقشش
مارکتر
سخره
اردوهای
ناخواه
تماشاخانه
بکنن
۲۰۰۰۰
فورچون
هابیت
دهلیزی
برهمکنش
3500
رگولاتور
بسنجد
مومنان
ETF
نامرتب
همورويید
طوس
یادی
##۷۲
##اکتر
هزارتن
گروهان
سایتها
سرعتش
مارهای
##چیچ
خواستنی
ترساندن
بصیرت
استقلالی
ویديوکنفرانس
احساساتش
مهماندار
کاپور
پولیس
فاوا
بیزین
##ette
یورگن
ماکسول
لیدار
eng
غضب
Classic
غزنویان
اندرسن
ذوالفقار
VL
bec
line
pp
اوشن
##پانسی
##اهان
افست
معاهد
کشان
دادا
چندوظ
نوایی
خرمالو
انگجت
کتابهایی
اورنگ
تصمیمش
مایکروفر
##ocol
##خانواده
تفریحاتی
رحمتی
پیازچه
طنزامیز
استینگر
Origin
DDR3
اخرالزمانی
عیلام
دومینیکن
گیمیفیک
Crow
Nat
QS
io
یود
ازق
دارونما
اسرای
کشاندن
هدایتی
شهناز
جهانبخش
طرحها
هواداری
اشترا
سینگل
هواپیماسازی
##hel
۲۴۱
متخصصی
اهنربا
لمب
۲۷۹
تالاسمی
پریسا
Arc
مارتینز
امیال
منجمان
دسرها
فخرالدین
قوامی
دریابند
بپیماید
بگریزد
BBC
Mass
PE
خمی
سیکس
فابی
##RGB
##49
##۴۲
خودارضایی
##ویج
النا
##وشین
##افس
محصولتان
##گریز
گلزار
##سانده
تراژیک
بپاش
باغبان
فیجی
ریتمیک
##بزرگم
تعهداتش
تاسمانی
گریبانگیر
فتوای
زانوهای
اشنایدر
پرچمداری
Bitcoin
design
Psy
بشک
ضابطه
لوست
یول
##GP
##۶۸
##ژین
##اهایش
##اتسو
برایتون
محیا
الرشید
دهنه
کلکته
ساي
موساد
##ctor
محاسن
دشوارترین
خیالم
یزدان
اکسپوژ
ترازوی
گاوهای
شطرنجی
Atl
Jack
M7
استکان
استرای
##رفورد
اشرفی
ساختمون
تقوی
کتابداری
سپارند
وبروت
مایو
حقارت
پنتیوم
##گارین
کیلومترها
۲۵۲
جستجوها
Brand
معصومی
لیبریه
گیمزکام
Gun
MK
Rate
Syn
find
##wn
##يیه
##Con
میلو
استیف
اناری
اوزان
اتنی
نساخته
نقط
##اپا
مصلی
حقانی
ارزون
##رخاله
لحاف
دریابد
عبارتست
بلوند
##حتمل
گوربا
ستارخان
لامسه
۱۸۷۲
غیابی
ترفندها
بگردند
دیلن
ابگرمکن
##perty
کوسوو
نوترینو
پپتید
Double
اورلاندو
FA
Feed
ایتی
چشید
یاریس
##دوله
##vent
##ذات
استماع
استیدیا
هموفیلی
ایگن
مدهای
##بتون
ارمن
پیگ
چندباره
سوپرس
کامند
##دانش
دقیقتر
کوتاهترین
تدریجا
چایخوری
خمره
۳۵۵
جرعه
لوکسی
۷۴۹
جامدات
فلاپی
1996
پرشیا
دوسوم
WWE
FinFET
پرستشگاه
نگردید
متروپولیت
Fantasy
Econ
Nano
درباز
##ابو
کارمن
نشاندن
ساختش
سپیدر
کامیت
معماها
ریحانه
گرمابه
##غذی
اشتراکات
فولک
اصلانی
پورتر
incl
##ودرما
بدیعی
هیپوفیز
Whats
میدونستم
بشینم
نصیرالدین
عیلامی
العدل
السالوادور
روسنفت
Aero
After
BS
NA
lib
خض
سولا
ناشت
٢٢
##wood
##۷۹
##ولز
بازل
گرتا
##وزیس
اشلی
نامحدودی
##شنکو
باربر
بنواز
##یدیوم
##اسیونی
ریون
افزودند
تریلی
عقبه
اردستان
معروفش
ذهنمون
نانول
عصیان
خیالش
##place
ندیدن
فخرالد
وبرق
طارمی
پاسیفیک
انفعالات
جیا
پراج
گایا
۷۴۰
##کاسی
##lock
##Eco
توچال
موذی
گذره
بدزد
دلپذیری
مختر
بنری
زندی
##مدتی
ارتباطش
دمش
پورسان
خمسه
تندگویان
نرسیدند
سيوالات
عبداللهی
رادیک
کاندیداتوری
همدست
هیتمن
اهرمی
حنفی
ننشسته
سايوپاي
Ah
link
اگن
جرح
وپنج
##ریپر
امنه
السا
##مایر
##واحد
نیومد
تباه
ورن
جهانپور
هوستون
کانورتی
وضو
##اترون
##وزیوم
ایستایی
۲۲۲
فایو
شلواری
الملوک
نقصان
اکسپرسیون
کارفرماها
عنصرهای
##وندیان
##ISC
تابلویی
پرستیژ
هیولایی
ادینبورگ
فرمايید
نمیدونستم
ابوطالب
Aw
ur
##GE
##2O
منجمله
مرقد
بدونی
نامربوط
زیرش
سیو
استانداران
تیغی
گویندگان
دانستنی
مجبورم
نیکولای
##ipe
شتابی
راکفلر
خزان
ویکند
بوسیدن
Netflix
زامبیا
قرقره
##ample
سرگردانی
نتورک
خبیث
Cer
Droid
sn
بقی
عفت
میردام
باص
برهنگی
اناست
##ونام
اوتل
فرنی
ابوذر
پرشتاب
ناوشکن
##لسط
اوردید
کالد
پژوهشهای
پاگانی
تیرباران
اکتان
مرزبندی
نابال
انزو
##اذیب
۳۴۵
##ploy
Admin
استفانی
۶۷۵
who
اکیپ
Robot
یکهو
چندهسته
ونتیلاتور
تیزهوشان
سوشال
ماریجوانا
Daily
had
search
tv
پوریا
##بنی
##sl
##۶۹
هاوال
الوص
اعلای
کوید
تلاوت
اکسایش
گریزد
نوشید
درهنگام
لاکتیک
نعمان
زراد
ریلکس
۱۸۵۶
فرناندز
میکسر
قاطعی
ESP
میچل
هیپوکامپ
Brain
Tag
custom
تضی
سکی
واند
پوری
چتری
کدم
۹۴۰
##BR
##Box
##ارز
میارن
خوداموز
بخونی
نامیدن
عناب
پرپشت
وقار
یادگیر
قطاری
مستبد
سایک
کانکشن
##leg
کدامشان
مبلغان
سیلویا
زردرنگ
قیصریه
تحریکات
انزجار
الناس
کنسرتو
سلوکیان
هالند
ثالثی
##کانیکی
اسکیپ
پنداشتند
Gears
الکتروموتور
Integ
کنسرسیومی
دیباگ
پروداکشن
فابریک
مکارم
باقلوا
##bor
##NO
بهداد
##امریکا
فرامی
ماکیان
بازیگوش
بزم
فیلارمونیک
هنریک
بالم
گلوریا
الکتروشیمی
##دالدوله
خواندنش
نامزدش
Ink
ایزوم
115
الاست
فاعل
استریمینگ
درویشان
بجوشانید
نوکليوتید
برونشیت
مینیاپولیس
Family
Load
cr
سیده
هز
یوهانس
دردا
##گرن
موبی
مناج
اريه
اعلی
صفح
اورگن
افتیم
اکبات
اثراتی
##ening
شعرا
۲۵۴
کفیل
اعتمادسازی
دعواهای
قاچ
۲۷۶
فالور
مایلز
کپیتال
استودیوها
##ART
اندرتی
میاندشت
اوکلند
##صادق
Trail
two
اوستیای
سپیدرود
کانورتیبل
B1
Fed
mon
ve
##يونی
میدار
##ولوشن
کاروتن
##رکیب
بازخرید
یاور
اسایی
افلک
دانکن
اتود
دادخواهی
##یسا
زیرکی
تعین
شکری
اثنی
تصاعدی
کداک
۳۰۲
ابرنگ
کیانگ
تحصیلکرده
رضوانی
مالکوم
سنجید
مایلند
##ista
۴۳۷
سناریویی
Airport
تیتانیومی
گرامافون
##cover
اظهارنظرهای
Install
قراين
فحاشی
نینوا
اتکایی
متاسفم
غیرمسلح
جانسپردند
ارجاعات
Ga
زاری
زالی
سمیه
کاتر
یوف
##تع
##42
درگز
میجی
بافق
توبا
ترجمی
مشکین
کمکتان
بداخ
عمارتی
##اپوس
کوکت
ارتساخ
کلمن
##بوردها
۳۰۴
مالش
۶۴۹
۵۹۰
لذیذترین
بگردیم
Indust
ابوعب
سینتکس
فرسایشی
##افسردگی
learning
tem
اگری
حیا
وشم
وخورد
وافل
##گتی
##کستر
##بلدون
##UL
##۸۲
انضم
##اقه
مسقف
پرورده
چهارد
اعض
جنبی
سیسیلی
اسپکت
اسپارک
ادمهایی
فیگور
۲۳۱
Reb
Shop
ببوس
LeEco
منجربه
دیالیز
مادربوردهای
فوجیتسو
سوءتفاهم
Mom
P8
لکی
##den
##TR
##fly
##ستروم
##برنامه
##ادیوم
مساوات
##عیه
اشکی
کشورم
نوپ
نخواب
نخواسته
مخم
اکاذیب
تاثیرش
فرانش
فرزان
Stat
Spring
DeX
پراگرسیو
نمايیم
دسکتاپی
ATM
Asus
یهودست
معضلی
بوفالو
Axon
MM
Ta
X4
یوا
##زاسیون
##نک
##طفی
##امیزی
##وشون
ادیسه
توسلی
احشام
زمینە
مهمون
فعالیتها
اونور
بلندش
جستار
برگزیند
تاییدشده
رفتارشان
##اظمی
۲۴۸
۲۱۳
دونست
کوشیدند
##rian
stud
مالزیایی
۱۸۵۷
الخط
ادلاید
میبینه
##النهر
Urb
عبدالبهاء
اپلکیشن
East
Ocean
ذبیح
لبا
مانه
##hip
##YC
میای
##ودریا
موگاد
کندوان
بیکاران
ابکاری
سویس
##ali
وقتایی
درخواهد
قراردادند
نابجایی
مونتانا
الانم
منزلش
ارتقایافته
چشمانتان
چادرهای
مجرمین
ابدیت
ژنراتورهای
هرجای
ویمبلدون
غشاهای
Extreme
رهیاب
Every
Fusion
Ide
SF
TLS
دبل
لونا
یوح
##۶۳
بهونه
##ودیک
هایدل
##ونته
##اقبی
اشویتس
نوحه
بالین
کامبر
##ویرا
اقتضای
پارسه
یهودا
سنگسار
تورج
##stone
اردوان
محبوبیتی
چرخنده
استقراض
تردریپر
میدارد
گیلمور
Insp
۶۵۲
اکوسیستمی
هیلتون
##quid
##انزاس
طاهریان
سجده
وایرال
هلیکوپترهای
توریسمو
شرايط
گناوه
Lu
Pok
root
زبرد
قروه
##طلبی
##خاک
##۶۷
##ندن
میرب
میلتون
ای۳
مدیسون
ابوتر
##ملات
خطاهایی
شرجی
خواباندن
۲۵۱
بناپارت
کشیدیم
##اتوره
مظلومی
باقلا
رشادت
ISI
سفالینه
لالایی
اتابکان
فرهیختگان
Nikk
عبدالمجید
BL
Cit
IL
Iris
VII
WPA
تشت
رکور
زول
طحال
هذی
یولی
##mp
##یزل
سازوکاری
گواردی
دیدین
##رمنی
ابتهاج
پوشالی
پنسل
رونقی
۲۴۲
پردازشگرهای
مریل
inc
##اویا
همدستی
۳۹۵
کنشگر
فیلدهای
لیدز
About
کاراگاهان
Linked
##دختر
##پانسیو
AES
Sar
ترول
رهایش
فورک
لاش
واریس
##لری
##sw
##note
##pad
درفش
ایونت
مدعا
قرچک
پیشوا
دیگرانی
نشی
مردند
شماتیک
##esis
۲۵۷
تلمود
##iles
اسکین
۲۲۳
##osition
اتیه
##زرق
وارسی
امضاکنندگان
رومرکز
فرزندانتان
رنجرور
۳۳۳
شایعترین
فرستادم
۸۷۰
فوایدی
مانیل
لرزشی
نمیکنن
##lands
غیرمنصفانه
غیرارادی
تاسوعا
گورباچف
نانولوله
gu
sy
sur
top
صلب
##جرد
گرداب
کلمنت
جنگد
پنجگانه
##ايیکه
اوردهای
حلش
گیاهخواری
بایاس
##ago
##نسن
تمیزکردن
ناصحیح
واژگونی
Interface
گلدوزی
مساعدی
فیبروز
شیلنگ
تولوز
فداکار
بعثت
ماخذ
تجربە
اکسپوژر
پراجکت
Hey
بژ
جایشان
رشتی
ناح
##چراغ
اناک
##روا
فریده
قبور
شهلا
صفوف
فقها
مکنده
خصوصیتی
۲۵۳
نباشی
سیاهکل
##idae
پالتو
ارزانترین
1950
عبدالوهاب
صاحبخانه
دینامو
نوازد
چسباند
GTI
۳۸۵
هامر
اینفوتین
دوکلا
screen
##appy
نمانید
امبرلا
عادتی
settings
سیدالشهدا
Thunderbolt
OM
Room
##موسی
##sch
میسون
ازکار
اینور
برونگ
انشاء
##الیپتوس
نقاد
پروکس
تیو
##رتبه
##omet
استقامتی
##iger
کورا
عشقش
مستندساز
براوردن
گورهای
ربودند
قصبه
حیدراباد
Premier
خونسرد
##xygen
Richard
Lou
ستی
##sen
##vin
میگل
بادها
برل
بودیسم
بازوبند
اسمال
هرنوع
رسل
ابایی
کوپل
ارتود
سپند
وزوز
تیگ
خونگرم
خوابد
ضدافسردگی
والف
بخارست
۲۸۸
۳۱۲
ماژولی
شناگران
عامر
گاردنر
Steam
پهلوانان
افکارتان
account
قراردهد
ایلخانان
##atabase
انپکد
F5
follow
صمدی
ویزی
٢١
##ذیه
##Cont
اینی
شدین
روي
ایکو
دوسل
دستینی
گرج
##اکورا
نقاله
نمیخواست
حاظر
اندروز
قصدی
تراویس
رهبرانی
دخترانی
##انگشتی
زمستانه
قهرمانانه
سورنتو
Prot
جرارد
پناهگاهی
نازایی
stack
##وازاکی
انیون
config
برامدند
لنینگراد
##ception
حمدالله
تراریخته
VDSL
Yoga
just
خیری
واله
٢٥
کخ
یجور
دراس
امه
تریدر
هرمن
مصح
کليوپ
##امدانه
چونکه
##پاول
تخلفی
##انته
روحش
کسانیکه
استادانی
Stop
Stream
عبدالق
ناسزا
USSD
##rike
مخلوق
لیزرهای
خریدارانی
حصاری
##خرج
زورگویی
نمیتونی
۱۸۵۹
مزدیس
مرغوبیت
چارتری
نرفتم
لوپوس
۲۰۷۷
گلیسیرین
بپیچید
لجبازی
ليوپولد
Domain
OTA
TL
Vue
دینگ
سماع
قوش
##uff
##39
درکل
##اهش
کردستانی
الاهلی
اسرا
ایروبیک
##شنج
بارمصرف
##بافت
کرال
ارزویی
۱۵۰۰۰
##aser
والری
پالرمو
##use
کجور
تاجیکی
المپیا
3080
through
ابوالفتح
۵۲۵
جواهری
##ugg
گروگانگیری
##ship
json
English
api
تکفیری
گواردیولا
5T
شیف
شيون
بریس
##اتوس
همپتون
توانای
دیوی
سربی
اداسی
کتابدار
ترکیش
##اشویلی
بگذرند
امارهایی
اسپور
سودانی
ضدسر
##رزاق
پالپ
فنیل
سیرال
بتلف
تایپوگرافی
Exchange
##outs
وتخت
وودز
Value
استندبای
NSX
Password
auth
بالشتک
برگذار
BT
Hack
فايو
لنس
وکس
##N1
##BT
استدی
##هایزر
پاییزه
##متن
فضولی
رودولف
##گلند
##اینس
اسلامشهر
فراق
اجراء
عواقبی
محققانی
سخنوری
سکولاری
۲۳۶
۲۶۴
نرسند
ترددهای
ستارگانی
ریمیکس
وزنیاک
شترمرغ
Collection
print
دیتاسنترها
People
امبروز
دهلران
کفتار
اعصار
845
NE
جب
واران
##pace
##صور
##47
##پید
##HT
دریبل
املای
##گرینی
تاکو
مدود
پیشاور
مسایلی
انجل
##اکردن
##کارنسی
جنگیده
جويی
فرزین
بنیه
مدارج
بریتنی
##ivate
زاغه
سبزیجاتی
ناتان
هلنی
یوتیوبر
یارای
عامری
متدولوژی
رنگارنگی
استثنايی
عالمی
اسراییلی
Strategy
بلاتکلیف
گسیختگی
بیوشیمیایی
دریاسالار
##vironment
اکباتان
Matt
Rap
met
power
هوب
هدی
پانی
۸۶۰
##اینده
باح
##ابرد
امش
روگ
مدونا
فریدن
گذری
##یریس
بهرهبرداری
نیروب
سروستان
##گیرند
لیث
تفریق
نفسم
بانکدار
شعبات
##elle
قرمزرنگ
الانبیا
الحسن
زورخانه
کراش
شکوهمند
سهروردی
باارز
کاراموزان
Planet
پلوتونیوم
رویارويی
920
Boy
L2
Main
Var
York
gener
##fare
##XT
درگاهی
میگیری
امیت
روسا
##رافرین
رسوخ
ساینده
##وارو
پارازیت
خاطرش
پوشیدند
حکیمی
سنگفرش
کدورت
۲۴۴
گرانادا
متخصصانی
مردانگی
انیماتور
گشاید
##ریشیا
string
##ونیکا
ببخشیم
پودینگ
Universal
گاتهام
پاریسی
اورارتو
Institute
موگادیشو
Let
Luc
Und
cache
فوب
ناتی
ویکس
یانه
##oj
##oice
##oji
##Core
توو
گراها
مرنج
انجلینا
پرزرق
##اتیون
بخشیدند
##گوچی
تصویرهای
۳۰۸
سربازانش
اهنگر
ترافلاپس
سینماست
##افتادگی
میناب
نقدهایی
استایلز
United
Suite
موتورسواران
Overwatch
نتیجە
بیندیشید
اندریاس
الفونسو
وغریب
Platform
برافراشته
Move
بمل
شونه
گشا
##حاد
##بدن
##JS
##ایمی
کاروانی
##اسکی
##وتروپ
اتاوا
نويل
##رحال
پیکری
اطرافشان
الانبار
شفاب
خساراتی
۷۰۷
توپک
ریچاردسون
کاشتن
exec
رزمنده
الپاین
Universe
تقویمی
return
سروکله
موتیف
Korea
اینفوتینمنت
Ha
VI
V2
فوبی
چکه
##ford
میدین
کنسان
خودخواسته
الزر
بیاری
اوپل
بخونیم
موردشان
نظرخواهی
نفرشان
شکاک
پاراف
سرواژه
سینماد
##room
پولانسکی
نکردی
هواپیمايی
مشتریانشان
شعرش
جوانتر
بازدیدها
گرانده
۴۰۲
دکستر
۲۳۳
طلايی
مخاطبش
مورالس
۲۷۴
گشادگی
کروناست
پراکنش
Any
اینفوگرافی
request
دیمن
1991
##ierra
نمیکنیم
Developers
مفعول
Aust
D8
Mind
X20
py
self
بونی
صدهزار
چیس
۴a
##گنی
##GC
##ty
##lor
##ادانا
روژ
یکمی
محبی
سالک
توسکانی
شهربانو
##۰۰۰۰
ساوند
##رافورد
مترجمی
##پیمان
پرسیم
پاشد
۲۱۱
حسینقلی
کشورهايی
درنورد
جوشان
کولاک
برزخ
حساسیتی
مخالفتی
ارسباران
کويیک
کریپتوکارنسی
تلنگر
Hit
Mic
best
way
علیک
هگ
##نما
##87
بازخواهد
افرای
انتاگون
۲۰۴۰
کرفت
ایدل
دنیز
فاروق
رانگلر
##قاقی
##وسیوس
پلدختر
لغایت
گمارده
۲۷۲
محورها
بکارید
Delete
لاتزیو
کینزی
رایتینگ
رندرینگ
میکرونزی
مبتدیان
اینسایت
Apex
School
الکسیوس
front
ربایندگان
Function
Vi
rest
تینا
جیزه
##رزی
##گما
##بوت
##۸۱
درسا
دراج
##روند
کنیز
بازها
اسلیمی
مجالی
##ستاندارد
زیگم
بلوبری
گلای
برگها
اسیايی
قلقل
سینگر
نبوت
میشده
##ida
رژلب
ایتالیايی
۲۸۶
نظراتتون
برگردانند
ماجراست
شهرکی
اندیشند
گراش
IP67
A55
بخواین
داهوا
Quantum
ژيوفیزیک
##ظرفیت
عامدانه
##hav
##خاش
میازاکی
##یروهای
نیاسین
تباران
علین
##onse
اکنده
قدرتهای
بانجی
بحساب
فارو
اسپند
اردنی
العرب
نشدیم
نژادها
۳۲۳
بتاکار
مشاع
ارکانزاس
بطول
Clash
سبدهای
کبرا
بدافزاری
کاردبورد
##فروشان
ریدلی
انشعابات
Legend
Sports
هایدگر
##نژاد
Browser
بیسکوییت
متالورژی
سايوپايولو
اندرتیکر
09
Cinem
Docker
FTP
Saint
بندگان
خضر
سنه
نابی
وشتاپن
کده
کايو
##کلند
##صدرا
مثله
##داست
اختاپوس
ایمانی
نورس
اونوقت
##leaks
قانونمند
##گارتی
کدخ
سودجویی
۲۲۱
بابلسر
تخفیفان
استحقاق
ایوانز
سمینارهای
حکمرانان
یواشکی
Consumer
فيودالی
تلویحا
سحرخیز
تواضع
زرادخانه
Dj
Mid
doc
mar
site
تگرگ
دلفی
پینه
کذ
کاکس
##بونی
##hop
##day
##پات
##Tech
##Work
اینباره
روث
##برون
##کنر
دورش
دلتون
شکوری
تکثر
ارزویش
حمیدی
فلمینگ
بیراهه
خوابیدم
هتلداری
۵۰۸
##اداوری
##ریزاسیون
پرتودرمانی
سنجر
نامزدان
سوارز
ضربدر
##پورتر
موزايیک
##ancer
خوانندگانی
Buy
فیثاغ
مرنجاب
کنسانتره
Ham
Mur
وافر
##سلام
##cell
##۷۱
##HA
##fall
انقدری
ایکان
##یکاری
خواهدشد
عرش
##ared
انرژ
ملکش
سنگری
مرتع
تراوش
جاییکه
۲۵۹
شهرستانهای
سقم
پروازهایی
تحقیقاتش
قویونلو
دیروقت
المپیکی
نادانی
وصلت
فصی
دبیان
اومدی
قومیتی
السد
۱۸۵۸
مدولاسیون
دربردارد
متروپولیتن
برونگرا
3a
Dom
FC
Hell
PWA
تارو
سکند
وچهار
چپاول
یاما
##uel
##iy
بروکراسی
موشی
##اکوس
پایپ
ماهری
کوهر
خریدتان
##جیان
نیرومندی
جذبه
فراغ
ببرها
##ides
انعکاسی
Change
##نظران
##روبراس
داکا
##ferences
بنشاند
بشکنند
درویشی
درماتیت
Pocket
اگار
صاب
لوند
چلبی
##mart
##uan
##nite
##FR
##Key
میترس
ازک
بادن
کنتی
##لاغ
##هایمان
القدس
اوند
فروشش
چهارساله
پوشد
هواپیماهایی
دردناکی
مراسمات
تیراهن
ببرهای
میخواند
نانوس
خودکارسازی
##گفتگو
کانالهای
عدنان
بریان
الاق
سربسته
تروما
سيات
مستحکمی
Asc
سیلیسیم
Solid
اسپاگتی
Insider
وکیوم
مدعو
##ginx
تخلخل
ناشایست
سیراليون
2G
HMS
P2
Paint
Public
رجوی
فمنی
مارد
مورتی
نکت
##برک
##خیم
میارم
##اییل
الانیا
مسخ
##بانکی
تیمارستان
##وکش
ریود
تسری
داماش
فنربندی
انتیوخ
تنگنا
استیگ
شادگان
بازگردانید
باتلاقی
ریتا
پژوهشگرانی
جانورشناسی
مبالغه
جاسوسان
الترناتیو
معاهدات
BA
CAD
بمع
پیترز
##عابی
##cil
##val
##NC
ایلیا
سالت
دوکشور
اوقاتی
گرها
شوندگان
نمدی
خرطوم
زیرپوش
معمر
قابلیتهای
شرمند
پولتان
کیایی
بورک
دفترهای
مجازاتی
خلعت
عزیزانی
ماتریسی
محرکی
than
these
مصدومان
##mann
کریستیان
سمپوزیوم
Verizon
سیگیت
جيوگرافیک
ننموده
سرقتی
سکوریت
بتاکاروتن
داکس
پتری
چق
۷۲۱
##جدید
##my
##ورگ
##ریچ
تاو
دوانی
##هرتز
کمودور
اشباح
ناموس
##کرار
مانید
فرومی
##عیتی
شهبانو
اکید
مکاش
گردشگاه
پولساز
خونواده
۲۶۸
##ester
پرفسور
ارزشمندتر
صدرنشینی
Shot
Unity
##quire
مبهمی
نمیتونیم
انفولانزای
انژکتور
ناسیونالیست
برنامە
FE
Hen
K20
i30
ob
اودی
فراف
قاپو
ژوزه
##کاظم
اونیل
2022
مستقلا
متفاوتند
شعرها
ذهنیتی
بایدها
##iable
صاحبنظران
رییسه
رامبل
۱۲۸۸
##plic
ناشنوایی
هالوژن
پنیرهای
گرگوری
شالکه
##جنب
نگریسته
Oxygen
PDA
book
dist
بتوانی
صابری
##سینگ
##72
##bed
تاثر
##مایت
گرنت
اماج
بدروم
موردانتظار
کواترو
واردکردن
واسیلی
ساعتها
##استاتیک
شورون
ریگی
برسونه
مبتذل
##یترون
پتروبراس
اسکادران
نکونام
۲۶۷
##andy
نامشخصی
۱۲۸۹
کلینیکی
کنشگران
ورایتی
Central
Corpor
هادسون
گیگاوات
خداداد
team
ThinkPad
دلخوشی
وارونگی
create
کليوپاترا
Ori
ستر
لاد
##سمان
##zo
##44
##۸۳
##ترز
بازخواست
بازپخش
دهە
عمره
##اکاری
اقلیتی
اعشاری
##دیلی
اصلیش
تصویرگر
کاوازاکی
بهبودها
پنچ
پیچشی
بوروکراسی
تونستن
##وپروفن
##ules
لیتل
Ref
گشاده
##ogen
برسانم
Spider
منطقە
Phys
##rones
تاتار
پفک
##پندنت
غزلیات
بیگناه
4k
Dawn
MR
Sonic
ژا
##حید
##ایزن
فرط
مطمع
شبدر
تغییریافته
نهصد
ریشتری
صداب
مغال
##گونیست
پیامبری
تیگران
رمق
##نواز
کیلیک
##لحظه
کرباس
۲۶۶
مینماید
##aba
مصرانه
وفصل
راموس
۳۸۴
Comb
فرمانروا
۶۱۷
##65G
ADHD
Hybrid
1984
ماوراءالنهر
کاتیون
نابالغ
رکوردها
دوکلاچه
7000
MVC
SI
txt
طومار
##89
##پک
بهمان
ازخود
##اتیکی
روما
یکماه
هاشان
خودباوری
نشاندهنده
سپرهای
منطقهک
چراگاه
یهویی
تایپی
##وندا
ماراتون
زیادش
شورایعالی
رفتنش
عزای
میخکوب
کابری
کورین
مرغابی
ونسان
هرکی
##ander
شاعرانی
ایزابلا
ترنسلیت
##جلسه
سکسکه
##Flow
Equ
Fight
IHS
load
ببار
لخ
نمین
##پام
##ادزه
##ریال
خودسوزی
موجر
بازویی
##اکوف
##وسون
##فیان
چهارسال
نیرنگ
تایرا
ابرار
##amic
کفاف
بافتن
۳۲۶
کوشان
ناوچه
امینم
عزیزانتان
روتوش
anal
Sea
البانیایی
هادریان
فرورفته
توسعە
لوکاشنکو
شبکە
ظواهر
کوهرنگ
210
430
Lond
سلت
فکتوری
##mar
##۷۳
اشپی
اباده
اطفا
همهمه
حسنه
حاجت
نبودید
ازدواجش
##iven
مورس
امیرخانی
۳۱۶
امپراتوران
روسها
سرشاری
فودها
کومار
پارتنر
اگاتا
کرتاسه
ماخوذ
##ledge
برمیگرده
ونتیج
داچیا
هیدروکربوری
Martin
Tablet
مناجات
گرجستانی
BMI
Rust
cent
she
خری
فایت
ماران
نهای
۸K
##داشته
##ui
##gar
##ستور
انکس
متول
سرتون
مانیم
اخیری
کومان
کلینت
خریدشان
ادامهابد
ترکیدن
پیرانشهر
اسپیت
معروفند
##وفلا
##ulation
۳۳۶
##مردم
۱۲۹۸
Warfare
##ITT
Acad
نیومده
Special
مستاجران
نیروبخش
الزرقاوی
ER
ERP
GLC
J5
L3
Teg
UPS
٢٤
گیز
ایسک
کارجو
منجم
معرب
معرفتی
اعانه
ندیمه
##بانگ
بارید
عرقی
ساشا
بالدار
خوشگذ
##iper
شلوارک
فریبرز
struct
دراستان
۳۸۶
پارامتری
بولتن
مچاله
هانزا
امدادگر
بزاریم
۱۸۴۹
ایبوپروفن
پاپیون
Raider
تودیع
فرانچسکو
النهار
تضییع
والفجر
Mr
Ut
sing
پرکننده
یوسی
##تال
##بیش
##XX
##شیپ
توسکا
فردیت
محدودسازی
سنگلا
بیانسه
مزون
[...]
